#include "model.h"

const unsigned char model[] = {
  0x1c, 0x00, 0x00, 0x00, 0x54, 0x46, 0x4c, 0x33, 0x14, 0x00, 0x20, 0x00,
  0x1c, 0x00, 0x18, 0x00, 0x14, 0x00, 0x10, 0x00, 0x0c, 0x00, 0x00, 0x00,
  0x08, 0x00, 0x04, 0x00, 0x14, 0x00, 0x00, 0x00, 0x1c, 0x00, 0x00, 0x00,
  0x98, 0x00, 0x00, 0x00, 0xf0, 0x00, 0x00, 0x00, 0x9c, 0x0d, 0x00, 0x00,
  0xac, 0x0d, 0x00, 0x00, 0x98, 0x13, 0x00, 0x00, 0x03, 0x00, 0x00, 0x00,
  0x01, 0x00, 0x00, 0x00, 0x10, 0x00, 0x00, 0x00, 0x00, 0x00, 0x0a, 0x00,
  0x10, 0x00, 0x0c, 0x00, 0x08, 0x00, 0x04, 0x00, 0x0a, 0x00, 0x00, 0x00,
  0x0c, 0x00, 0x00, 0x00, 0x1c, 0x00, 0x00, 0x00, 0x3c, 0x00, 0x00, 0x00,
  0x0f, 0x00, 0x00, 0x00, 0x73, 0x65, 0x72, 0x76, 0x69, 0x6e, 0x67, 0x5f,
  0x64, 0x65, 0x66, 0x61, 0x75, 0x6c, 0x74, 0x00, 0x01, 0x00, 0x00, 0x00,
  0x04, 0x00, 0x00, 0x00, 0x90, 0xff, 0xff, 0xff, 0x0b, 0x00, 0x00, 0x00,
  0x04, 0x00, 0x00, 0x00, 0x08, 0x00, 0x00, 0x00, 0x6f, 0x75, 0x74, 0x70,
  0x75, 0x74, 0x5f, 0x30, 0x00, 0x00, 0x00, 0x00, 0x01, 0x00, 0x00, 0x00,
  0x04, 0x00, 0x00, 0x00, 0xb6, 0xf1, 0xff, 0xff, 0x04, 0x00, 0x00, 0x00,
  0x0d, 0x00, 0x00, 0x00, 0x69, 0x6e, 0x70, 0x75, 0x74, 0x5f, 0x6c, 0x61,
  0x79, 0x65, 0x72, 0x5f, 0x32, 0x00, 0x00, 0x00, 0x02, 0x00, 0x00, 0x00,
  0x34, 0x00, 0x00, 0x00, 0x04, 0x00, 0x00, 0x00, 0xdc, 0xff, 0xff, 0xff,
  0x0e, 0x00, 0x00, 0x00, 0x04, 0x00, 0x00, 0x00, 0x13, 0x00, 0x00, 0x00,
  0x43, 0x4f, 0x4e, 0x56, 0x45, 0x52, 0x53, 0x49, 0x4f, 0x4e, 0x5f, 0x4d,
  0x45, 0x54, 0x41, 0x44, 0x41, 0x54, 0x41, 0x00, 0x08, 0x00, 0x0c, 0x00,
  0x08, 0x00, 0x04, 0x00, 0x08, 0x00, 0x00, 0x00, 0x0d, 0x00, 0x00, 0x00,
  0x04, 0x00, 0x00, 0x00, 0x13, 0x00, 0x00, 0x00, 0x6d, 0x69, 0x6e, 0x5f,
  0x72, 0x75, 0x6e, 0x74, 0x69, 0x6d, 0x65, 0x5f, 0x76, 0x65, 0x72, 0x73,
  0x69, 0x6f, 0x6e, 0x00, 0x0f, 0x00, 0x00, 0x00, 0xa8, 0x0c, 0x00, 0x00,
  0xa0, 0x0c, 0x00, 0x00, 0x50, 0x0c, 0x00, 0x00, 0x40, 0x04, 0x00, 0x00,
  0x2c, 0x04, 0x00, 0x00, 0xdc, 0x03, 0x00, 0x00, 0x4c, 0x03, 0x00, 0x00,
  0xbc, 0x00, 0x00, 0x00, 0xb4, 0x00, 0x00, 0x00, 0xac, 0x00, 0x00, 0x00,
  0xa4, 0x00, 0x00, 0x00, 0x9c, 0x00, 0x00, 0x00, 0x94, 0x00, 0x00, 0x00,
  0x74, 0x00, 0x00, 0x00, 0x04, 0x00, 0x00, 0x00, 0x6e, 0xf2, 0xff, 0xff,
  0x04, 0x00, 0x00, 0x00, 0x60, 0x00, 0x00, 0x00, 0x0c, 0x00, 0x00, 0x00,
  0x08, 0x00, 0x0e, 0x00, 0x08, 0x00, 0x04, 0x00, 0x08, 0x00, 0x00, 0x00,
  0x10, 0x00, 0x00, 0x00, 0x28, 0x00, 0x00, 0x00, 0x00, 0x00, 0x06, 0x00,
  0x08, 0x00, 0x04, 0x00, 0x06, 0x00, 0x00, 0x00, 0x04, 0x00, 0x00, 0x00,
  0x01, 0x00, 0x00, 0x00, 0xea, 0x03, 0x00, 0x00, 0x0c, 0x00, 0x18, 0x00,
  0x14, 0x00, 0x10, 0x00, 0x0c, 0x00, 0x04, 0x00, 0x0c, 0x00, 0x00, 0x00,
  0xfb, 0x41, 0x81, 0x10, 0xc6, 0x30, 0x50, 0xe0, 0x02, 0x00, 0x00, 0x00,
  0x02, 0x00, 0x00, 0x00, 0x04, 0x00, 0x00, 0x00, 0x06, 0x00, 0x00, 0x00,
  0x32, 0x2e, 0x31, 0x39, 0x2e, 0x30, 0x00, 0x00, 0xda, 0xf2, 0xff, 0xff,
  0x04, 0x00, 0x00, 0x00, 0x10, 0x00, 0x00, 0x00, 0x31, 0x2e, 0x31, 0x33,
  0x2e, 0x31, 0x00, 0x00, 0x00, 0x00, 0x00, 0x00, 0x00, 0x00, 0x00, 0x00,
  0x4c, 0xee, 0xff, 0xff, 0x50, 0xee, 0xff, 0xff, 0x54, 0xee, 0xff, 0xff,
  0x58, 0xee, 0xff, 0xff, 0x5c, 0xee, 0xff, 0xff, 0x0a, 0xf3, 0xff, 0xff,
  0x04, 0x00, 0x00, 0x00, 0x80, 0x02, 0x00, 0x00, 0x25, 0x39, 0xbb, 0xbf,
  0x4e, 0xd7, 0x46, 0x3f, 0x35, 0x7e, 0x2f, 0xbf, 0x75, 0x67, 0xb3, 0xbf,
  0xf8, 0x70, 0x84, 0xc2, 0x6e, 0xdd, 0x8d, 0x3d, 0x7d, 0x54, 0xa3, 0x3e,
  0xbb, 0x6e, 0x03, 0x3e, 0x4f, 0x61, 0x02, 0x3e, 0x8c, 0x73, 0x88, 0xc1,
  0xfc, 0x51, 0xc5, 0xbf, 0x94, 0x19, 0xe1, 0x3e, 0x12, 0x3a, 0x4c, 0xbf,
  0x41, 0xa9, 0xd6, 0xbf, 0x08, 0x31, 0x84, 0xc2, 0x17, 0x7b, 0xa4, 0xbc,
  0xc9, 0xb8, 0x83, 0xbb, 0x3e, 0xe4, 0xd8, 0xbc, 0xa6, 0xa3, 0x91, 0xbd,
  0x66, 0x96, 0x2c, 0x41, 0x5b, 0xc4, 0x2a, 0x3d, 0xa6, 0xcc, 0x2f, 0x3d,
  0x24, 0x40, 0x57, 0x3d, 0xae, 0xed, 0x31, 0x3d, 0x8a, 0x9d, 0x46, 0x41,
  0x01, 0x34, 0x20, 0x3c, 0x4b, 0xaa, 0xb3, 0x3c, 0x88, 0x58, 0xde, 0x3b,
  0xf8, 0x55, 0x68, 0x3a, 0xa4, 0x12, 0x31, 0x41, 0xb2, 0x1c, 0xc2, 0x3b,
  0x6d, 0xb1, 0x9b, 0xbb, 0x8c, 0x8b, 0x23, 0x3c, 0x3f, 0x6d, 0x01, 0xbd,
  0x19, 0x96, 0x2c, 0x41, 0x25, 0x14, 0xb3, 0xbf, 0xeb, 0x02, 0x75, 0x3f,
  0xb4, 0x8d, 0x33, 0xbf, 0xf6, 0xb9, 0xdd, 0xbf, 0x2c, 0x74, 0x84, 0xc2,
  0xdf, 0xe4, 0xab, 0xbf, 0x43, 0xab, 0xa9, 0x3e, 0x35, 0x2f, 0x20, 0xbf,
  0x49, 0x4c, 0xf7, 0xbf, 0x04, 0xac, 0x84, 0xc2, 0xc6, 0x2f, 0x36, 0xc0,
  0x13, 0xc2, 0x9b, 0xbf, 0xaa, 0xcc, 0x13, 0xc0, 0x9d, 0xef, 0x50, 0xc0,
  0xa0, 0x54, 0x72, 0xc2, 0x4a, 0x6b, 0x2e, 0x3a, 0x02, 0xa2, 0x9f, 0x3c,
  0xe9, 0x77, 0xee, 0x3b, 0xe0, 0x22, 0x5b, 0xbc, 0x2e, 0x30, 0x2d, 0x41,
  0x44, 0xf7, 0x6c, 0x3c, 0x94, 0x76, 0xb5, 0xbd, 0x3a, 0x6a, 0xde, 0xbc,
  0x0a, 0x7c, 0xbf, 0x3c, 0x33, 0x79, 0x20, 0x41, 0x0e, 0x8e, 0x1d, 0xbd,
  0xf0, 0x4d, 0x8e, 0xbd, 0x7a, 0xb4, 0x51, 0xbd, 0x57, 0x74, 0x9f, 0xbd,
  0x47, 0x04, 0x14, 0x41, 0xf9, 0x3c, 0x8a, 0xbd, 0xe0, 0x6f, 0x8a, 0x3d,
  0x68, 0x71, 0x25, 0xbd, 0x25, 0x15, 0x9f, 0xbd, 0x84, 0x4f, 0x3b, 0x41,
  0x34, 0xe0, 0x67, 0x3c, 0x8e, 0x3d, 0x97, 0xbc, 0xe4, 0x83, 0xe7, 0x3c,
  0x9d, 0xd2, 0x3b, 0x3d, 0x58, 0xd6, 0x1c, 0x41, 0x6c, 0x78, 0x5c, 0xbd,
  0xaf, 0x91, 0x35, 0xbd, 0x30, 0x8e, 0x2d, 0xbd, 0x01, 0x3d, 0xbe, 0xbd,
  0x42, 0xaf, 0x10, 0x41, 0xa2, 0x0c, 0x9a, 0x3d, 0xe3, 0x84, 0xa7, 0xbd,
  0xf0, 0x68, 0x79, 0x3d, 0x88, 0x4f, 0xaa, 0x3d, 0x22, 0xdb, 0x36, 0x41,
  0x00, 0x85, 0xa8, 0xbf, 0x83, 0x66, 0xa7, 0x3e, 0x41, 0x91, 0xee, 0xbe,
  0x77, 0x26, 0xc0, 0xbf, 0xe2, 0x5e, 0x84, 0xc2, 0x48, 0x01, 0xf8, 0xbc,
  0xcc, 0x25, 0xb3, 0xbd, 0x4f, 0x9b, 0x85, 0xbd, 0x8b, 0x76, 0x3b, 0xbd,
  0xc9, 0xbc, 0x13, 0x41, 0xd6, 0x48, 0x3f, 0xbd, 0x18, 0xdf, 0x38, 0xbd,
  0x51, 0xa1, 0x29, 0xbd, 0x6f, 0x0a, 0x90, 0xbd, 0x66, 0xc7, 0x10, 0x41,
  0xb9, 0xe6, 0x7e, 0x3d, 0x39, 0xad, 0xfd, 0x3c, 0xf7, 0xb1, 0xbf, 0x3d,
  0x99, 0x98, 0x22, 0x3e, 0x8f, 0x74, 0x20, 0x41, 0xe3, 0x34, 0xf7, 0xbb,
  0x92, 0xfb, 0x38, 0xbd, 0x50, 0x97, 0xcd, 0xbc, 0x05, 0x98, 0xd9, 0xbc,
  0x4e, 0xbc, 0x15, 0x41, 0xf2, 0xbf, 0xbb, 0x3a, 0xad, 0x53, 0x95, 0xbd,
  0xe5, 0x00, 0x21, 0xbd, 0x81, 0x3b, 0x7d, 0x3a, 0x51, 0xff, 0x11, 0x41,
  0x9a, 0x18, 0xe5, 0x3c, 0xc2, 0x80, 0x7c, 0x3d, 0xcd, 0x90, 0x97, 0x3d,
  0xbb, 0x91, 0xae, 0x3d, 0x55, 0xa1, 0x1c, 0x41, 0xed, 0x85, 0x6b, 0xbd,
  0x72, 0xdc, 0x98, 0xbd, 0x18, 0x19, 0x74, 0xbd, 0x59, 0x88, 0xa4, 0xbd,
  0xa9, 0x3e, 0x13, 0x41, 0xe1, 0x19, 0xca, 0xbf, 0xa9, 0x19, 0x8b, 0x3e,
  0x45, 0x8e, 0x54, 0xbf, 0x73, 0xba, 0xdc, 0xbf, 0x49, 0x6c, 0x84, 0xc2,
  0x03, 0x41, 0x06, 0xbe, 0xad, 0x87, 0x02, 0xbe, 0xb3, 0xe2, 0x03, 0xbe,
  0x55, 0xff, 0xb2, 0xbd, 0x85, 0xf3, 0x1b, 0x41, 0x23, 0x57, 0xd3, 0xbf,
  0x0a, 0x28, 0x93, 0x3e, 0x0a, 0x5a, 0x6b, 0xbf, 0x11, 0x5b, 0xf7, 0xbf,
  0xcf, 0x4f, 0x84, 0xc2, 0x43, 0x73, 0x33, 0xbd, 0xa9, 0xd0, 0x3a, 0x3c,
  0x95, 0xf4, 0xae, 0xbc, 0x4b, 0x74, 0x26, 0xbd, 0x11, 0x26, 0x52, 0x41,
  0x1d, 0x75, 0x26, 0xbd, 0x01, 0x97, 0x49, 0xbd, 0xf7, 0xc6, 0x58, 0xbd,
  0x33, 0x15, 0x8d, 0xbd, 0xee, 0x63, 0x10, 0x41, 0xd5, 0x94, 0xe3, 0xbc,
  0x24, 0x6c, 0x02, 0xbe, 0xcf, 0x3c, 0x9b, 0xbd, 0x1d, 0xe5, 0x1c, 0xbd,
  0x43, 0x5e, 0x12, 0x41, 0xa5, 0xfd, 0x0d, 0xbd, 0xf5, 0x43, 0x84, 0xbd,
  0x94, 0x72, 0x2e, 0xbd, 0x72, 0x54, 0x66, 0xbd, 0x79, 0xa5, 0x12, 0x41,
  0x96, 0xf5, 0xff, 0xff, 0x04, 0x00, 0x00, 0x00, 0x80, 0x00, 0x00, 0x00,
  0xb1, 0xd5, 0x8f, 0xbf, 0x3c, 0xf7, 0x5d, 0x40, 0xca, 0xdc, 0x97, 0xbf,
  0x32, 0xf7, 0x9e, 0xc0, 0xf2, 0xba, 0x0a, 0xc1, 0x3a, 0x67, 0xb6, 0xc0,
  0x56, 0xea, 0xa2, 0xc0, 0x9a, 0x22, 0x8b, 0xbf, 0x64, 0x77, 0xa8, 0xbf,
  0xcd, 0x09, 0x88, 0xc0, 0xe0, 0x9e, 0xa7, 0xc0, 0xe6, 0x5c, 0x56, 0xc0,
  0x68, 0xee, 0xff, 0xbf, 0x79, 0x7e, 0xdf, 0xc0, 0xb9, 0xbb, 0x57, 0xc0,
  0xb8, 0xba, 0xf9, 0xbf, 0xd4, 0x38, 0xd4, 0xc0, 0xb0, 0x91, 0x9e, 0xbf,
  0x46, 0x82, 0x00, 0xc0, 0xf2, 0x49, 0xfb, 0xbf, 0xe1, 0xb9, 0x71, 0xc0,
  0xdb, 0xdb, 0x05, 0xc0, 0xdd, 0x87, 0x03, 0xc0, 0x85, 0x4b, 0x60, 0xc0,
  0x7a, 0x7c, 0xfa, 0xbf, 0xdd, 0x7c, 0xab, 0xbf, 0xc5, 0xc4, 0x3c, 0xc0,
  0x36, 0x09, 0xad, 0xbf, 0xe4, 0x17, 0x25, 0xc1, 0x28, 0x1e, 0xfb, 0xbf,
  0x9f, 0x8c, 0xfb, 0xbf, 0x3e, 0x2e, 0x00, 0xc0, 0x22, 0xf6, 0xff, 0xff,
  0x04, 0x00, 0x00, 0x00, 0x40, 0x00, 0x00, 0x00, 0x73, 0xa4, 0x71, 0xc2,
  0x7b, 0x11, 0x70, 0xc2, 0x49, 0xe7, 0x6f, 0xc2, 0x6e, 0x29, 0x71, 0xc2,
  0xe2, 0xce, 0x71, 0xc2, 0x47, 0x96, 0x4c, 0x42, 0x4b, 0xb3, 0x71, 0xc2,
  0x73, 0xae, 0x49, 0x42, 0x78, 0x99, 0x51, 0x42, 0x6f, 0x6b, 0x71, 0xc2,
  0x12, 0xa4, 0x70, 0xc2, 0xbe, 0xd4, 0x71, 0xc2, 0x0a, 0x61, 0x55, 0x42,
  0xba, 0x96, 0x53, 0x42, 0xab, 0xb0, 0x42, 0x42, 0x37, 0x3a, 0x41, 0x42,
  0x6e, 0xf6, 0xff, 0xff, 0x04, 0x00, 0x00, 0x00, 0x04, 0x00, 0x00, 0x00,
  0x13, 0xb9, 0x63, 0x42, 0x7e, 0xf6, 0xff, 0xff, 0x04, 0x00, 0x00, 0x00,
  0x00, 0x08, 0x00, 0x00, 0x70, 0x43, 0x36, 0x42, 0xc0, 0xca, 0x1c, 0xc1,
  0x77, 0x86, 0x35, 0x42, 0x8a, 0xfd, 0x20, 0xc1, 0xdc, 0xfd, 0xb5, 0xc1,
  0x90, 0x37, 0x3f, 0xc1, 0xf5, 0x91, 0x2c, 0xc1, 0x97, 0xdd, 0x35, 0x42,
  0x34, 0x75, 0x34, 0x42, 0x73, 0x0e, 0x0f, 0x42, 0xe4, 0x97, 0x32, 0xc1,
  0xdf, 0x28, 0x00, 0xc1, 0xc0, 0x1d, 0x0f, 0xc1, 0xdb, 0x57, 0x7a, 0xc1,
  0x4b, 0xa9, 0xfb, 0xc0, 0x91, 0x57, 0x2c, 0xc1, 0x39, 0xc2, 0x69, 0xc1,
  0x07, 0x77, 0x34, 0x42, 0xfd, 0x0f, 0xe3, 0xc0, 0xbd, 0x3a, 0xe8, 0xc0,
  0x06, 0xd7, 0xf9, 0xc0, 0xe4, 0x80, 0xe1, 0xc0, 0xfe, 0x9c, 0xde, 0xc0,
  0xbc, 0xf8, 0x00, 0xc1, 0x47, 0x6e, 0x2c, 0xc1, 0xdc, 0x8c, 0x32, 0x42,
  0xef, 0x1e, 0xee, 0xc0, 0x6a, 0x05, 0x33, 0x42, 0x34, 0x22, 0x0e, 0xc2,
  0xaa, 0xb2, 0x14, 0xc1, 0x94, 0x95, 0xdf, 0xc0, 0x60, 0x22, 0x02, 0xc1,
  0xcd, 0xe8, 0x33, 0x42, 0xd1, 0x46, 0x1e, 0xc1, 0x37, 0x1d, 0x32, 0x42,
  0xac, 0x59, 0x25, 0xc1, 0xdc, 0x9f, 0xb1, 0xc1, 0xad, 0x24, 0x32, 0xc1,
  0x96, 0xc9, 0x25, 0xc1, 0xbc, 0xd7, 0x34, 0x42, 0x5a, 0x9e, 0x32, 0x42,
  0x83, 0x43, 0x0d, 0x42, 0x39, 0x13, 0x25, 0xc1, 0x97, 0xdc, 0xe2, 0xc0,
  0x61, 0x14, 0x13, 0xc1, 0xdd, 0x37, 0x6e, 0xc1, 0xba, 0xdd, 0x00, 0xc1,
  0x97, 0xe6, 0x25, 0xc1, 0x53, 0xeb, 0x62, 0xc1, 0x01, 0x2e, 0x34, 0x42,
  0xa4, 0xcc, 0xd0, 0xc0, 0x52, 0xdd, 0xf3, 0xc0, 0x25, 0x64, 0x00, 0xc1,
  0xf4, 0x06, 0xd0, 0xc0, 0x9e, 0xf7, 0xe4, 0xc0, 0x16, 0xee, 0xff, 0xc0,
  0x4e, 0xdf, 0x26, 0xc1, 0x7c, 0x90, 0x32, 0x42, 0xce, 0x92, 0xf9, 0xc0,
  0xd3, 0x1a, 0x31, 0x42, 0x37, 0xbd, 0x0c, 0xc2, 0x51, 0xdc, 0x0e, 0xc1,
  0x1d, 0x02, 0xe2, 0xc0, 0xc8, 0x1c, 0xf5, 0xc0, 0x9f, 0x3d, 0x34, 0x42,
  0xd1, 0xbc, 0x1c, 0xc1, 0x75, 0xbd, 0x31, 0x42, 0xdb, 0x14, 0x1d, 0xc1,
  0x40, 0xac, 0xb4, 0xc1, 0xce, 0x28, 0x34, 0xc1, 0x8d, 0xc6, 0x23, 0xc1,
  0x51, 0x26, 0x34, 0x42, 0x38, 0x20, 0x34, 0x42, 0xdb, 0xf2, 0x0b, 0x42,
  0x9e, 0xd9, 0x2e, 0xc1, 0xbc, 0x45, 0xeb, 0xc0, 0xf5, 0x32, 0x0b, 0xc1,
  0x11, 0x68, 0x78, 0xc1, 0xdc, 0x7f, 0x01, 0xc1, 0x78, 0x91, 0x23, 0xc1,
  0x21, 0xeb, 0x63, 0xc1, 0x21, 0xdf, 0x34, 0x42, 0x45, 0x9e, 0xe0, 0xc0,
  0xf4, 0x45, 0xdc, 0xc0, 0x25, 0x89, 0xf5, 0xc0, 0x0b, 0xce, 0xc8, 0xc0,
  0x82, 0xd2, 0xd6, 0xc0, 0x14, 0xf5, 0xf6, 0xc0, 0x10, 0x70, 0x1d, 0xc1,
  0xf6, 0xf5, 0x31, 0x42, 0xfb, 0xa7, 0xe7, 0xc0, 0xe5, 0xd2, 0x31, 0x42,
  0x73, 0x91, 0x0d, 0xc2, 0x1f, 0x50, 0x0e, 0xc1, 0xec, 0x48, 0xe6, 0xc0,
  0xfb, 0x8f, 0xf0, 0xc0, 0x38, 0xc3, 0x34, 0x42, 0x61, 0xea, 0x18, 0xc1,
  0xbe, 0x28, 0x35, 0x42, 0xcd, 0x8c, 0x22, 0xc1, 0x7a, 0xfa, 0xb3, 0xc1,
  0xb6, 0xc8, 0x36, 0xc1, 0xb4, 0xcb, 0x29, 0xc1, 0xda, 0x3f, 0x35, 0x42,
  0x7f, 0x00, 0x33, 0x42, 0x6e, 0x21, 0x0e, 0x42, 0x4d, 0x70, 0x30, 0xc1,
  0x53, 0x62, 0xf8, 0xc0, 0x65, 0x1e, 0x1a, 0xc1, 0xa7, 0x4c, 0x73, 0xc1,
  0xa9, 0x3c, 0xfd, 0xc0, 0x18, 0xd4, 0x2e, 0xc1, 0xfe, 0x72, 0x62, 0xc1,
  0x8a, 0x25, 0x36, 0x42, 0x38, 0x52, 0xdb, 0xc0, 0xd6, 0x7b, 0xe4, 0xc0,
  0x9e, 0xd0, 0xf9, 0xc0, 0xf0, 0x09, 0xd6, 0xc0, 0x55, 0xbc, 0xdb, 0xc0,
  0x1e, 0xb1, 0xf4, 0xc0, 0x08, 0xc2, 0x23, 0xc1, 0xda, 0x16, 0x34, 0x42,
  0xdf, 0xbd, 0xe9, 0xc0, 0x57, 0xf1, 0x32, 0x42, 0x38, 0x84, 0x0c, 0xc2,
  0x51, 0x34, 0x0f, 0xc1, 0xa9, 0xdf, 0xec, 0xc0, 0xf7, 0x0f, 0xf4, 0xc0,
  0x29, 0x86, 0x35, 0x42, 0xa7, 0x81, 0x16, 0xc1, 0xf5, 0xc1, 0x34, 0x42,
  0xcb, 0x67, 0x28, 0xc1, 0x74, 0x60, 0xb4, 0xc1, 0x93, 0x40, 0x40, 0xc1,
  0x15, 0x44, 0x2a, 0xc1, 0x92, 0x16, 0x36, 0x42, 0xba, 0x57, 0x33, 0x42,
  0xb8, 0xb1, 0x0e, 0x42, 0x31, 0x8d, 0x2d, 0xc1, 0x4f, 0x17, 0xee, 0xc0,
  0xd9, 0x3b, 0x13, 0xc1, 0x51, 0x32, 0x75, 0xc1, 0x0d, 0x03, 0x04, 0xc1,
  0x67, 0x78, 0x2e, 0xc1, 0x0a, 0xd6, 0x67, 0xc1, 0x47, 0x4c, 0x37, 0x42,
  0xc6, 0x7a, 0xd6, 0xc0, 0x38, 0x4a, 0xea, 0xc0, 0x02, 0x5a, 0x03, 0xc1,
  0xc3, 0x66, 0xe1, 0xc0, 0xf4, 0x6c, 0xd8, 0xc0, 0xb6, 0xcb, 0xfd, 0xc0,
  0xc2, 0x1b, 0x2e, 0xc1, 0xd4, 0xd3, 0x33, 0x42, 0x9b, 0xf7, 0xf2, 0xc0,
  0xc3, 0x5e, 0x32, 0x42, 0x52, 0x84, 0x0c, 0xc2, 0x7d, 0x54, 0x14, 0xc1,
  0x18, 0xca, 0xf4, 0xc0, 0xb5, 0x41, 0x02, 0xc1, 0xb9, 0xe5, 0x29, 0xc2,
  0x12, 0xb7, 0x00, 0xc2, 0x97, 0xb3, 0x28, 0xc2, 0xbb, 0x6e, 0x33, 0x41,
  0xfe, 0x1a, 0xc0, 0x41, 0x81, 0x86, 0x51, 0x41, 0x1a, 0x99, 0x3d, 0x41,
  0xda, 0xdb, 0x2b, 0xc2, 0x3c, 0x62, 0x29, 0xc2, 0xba, 0xcc, 0x1b, 0xc2,
  0xf0, 0x4b, 0x3e, 0x41, 0x6c, 0x04, 0x0f, 0x41, 0xaa, 0x48, 0xe3, 0x40,
  0xa1, 0x78, 0x82, 0x41, 0x3a, 0xcb, 0x10, 0x41, 0x5a, 0xe8, 0xe7, 0x40,
  0xc6, 0xbe, 0x7b, 0x41, 0x7e, 0x57, 0x2b, 0xc2, 0x99, 0xaa, 0xf0, 0x40,
  0x6e, 0xef, 0xff, 0x40, 0xb7, 0xf3, 0x15, 0x41, 0x44, 0x1a, 0xe4, 0x40,
  0x6e, 0x6f, 0xed, 0x40, 0xcb, 0xfc, 0x12, 0x41, 0x46, 0xef, 0xf6, 0x40,
  0xfb, 0x7d, 0x28, 0xc2, 0x31, 0x7c, 0x0a, 0x41, 0xd5, 0xfa, 0x25, 0xc2,
  0x58, 0x65, 0x14, 0x42, 0xed, 0x7d, 0xed, 0x40, 0xee, 0x5d, 0xf5, 0x40,
  0xf4, 0x1b, 0xf6, 0x40, 0x71, 0x57, 0x37, 0x42, 0x3d, 0xcd, 0x1a, 0xc1,
  0x03, 0x55, 0x33, 0x42, 0x24, 0x8e, 0x27, 0xc1, 0x41, 0x2b, 0xb4, 0xc1,
  0x96, 0xf4, 0x36, 0xc1, 0x04, 0x1f, 0x27, 0xc1, 0x79, 0xf0, 0x35, 0x42,
  0xc5, 0xc2, 0x34, 0x42, 0xc4, 0x54, 0x0f, 0x42, 0xa8, 0xac, 0x29, 0xc1,
  0x92, 0xbd, 0xff, 0xc0, 0xd5, 0x07, 0x17, 0xc1, 0x54, 0x5c, 0x76, 0xc1,
  0xf1, 0xff, 0x01, 0xc1, 0xcf, 0x96, 0x2e, 0xc1, 0x98, 0x12, 0x60, 0xc1,
  0x4f, 0x59, 0x35, 0x42, 0x82, 0x03, 0xd8, 0xc0, 0x07, 0xd1, 0xec, 0xc0,
  0x67, 0x2e, 0xfd, 0xc0, 0x76, 0xde, 0xdf, 0xc0, 0x87, 0xe9, 0xd9, 0xc0,
  0xf6, 0x3e, 0x01, 0xc1, 0x21, 0xc5, 0x2d, 0xc1, 0x8c, 0xd7, 0x34, 0x42,
  0x11, 0xd7, 0xfa, 0xc0, 0x15, 0x60, 0x34, 0x42, 0xef, 0xea, 0x0e, 0xc2,
  0x0f, 0xcf, 0x16, 0xc1, 0xd5, 0x30, 0xe8, 0xc0, 0x06, 0xec, 0xfb, 0xc0,
  0x41, 0x2e, 0x2a, 0xc2, 0xf1, 0x5e, 0x23, 0xc2, 0x8f, 0x29, 0x28, 0xc2,
  0xea, 0x6a, 0x37, 0x41, 0x52, 0x26, 0xc2, 0x41, 0x81, 0x1f, 0x4b, 0x41,
  0xfe, 0xd8, 0x38, 0x41, 0x30, 0x1e, 0x2a, 0xc2, 0xa9, 0x1b, 0x26, 0xc2,
  0xd7, 0xd0, 0x19, 0xc2, 0xb9, 0xa0, 0x46, 0x41, 0xd4, 0x56, 0x0b, 0x41,
  0x13, 0x93, 0xf2, 0x40, 0x6a, 0xdb, 0x83, 0x41, 0x32, 0x15, 0x13, 0x41,
  0x35, 0x1e, 0xea, 0x40, 0xac, 0x48, 0x7d, 0x41, 0xd2, 0x36, 0x28, 0xc2,
  0x44, 0x6c, 0xed, 0x40, 0x03, 0x92, 0xec, 0x40, 0x61, 0x71, 0x0e, 0x41,
  0x18, 0x2c, 0xeb, 0x40, 0xc8, 0x45, 0xf8, 0x40, 0xca, 0x04, 0x14, 0x41,
  0xe6, 0xcc, 0xf8, 0x40, 0x04, 0x79, 0x25, 0xc2, 0x62, 0x25, 0x0b, 0x41,
  0x00, 0xa0, 0x25, 0xc2, 0x4a, 0xf3, 0x13, 0x42, 0xe4, 0xd1, 0xf1, 0x40,
  0x79, 0xdb, 0xf7, 0x40, 0xaf, 0xef, 0xea, 0x40, 0xb8, 0x87, 0x2c, 0xc2,
  0x69, 0x67, 0x9f, 0xc1, 0xb0, 0xec, 0x29, 0xc2, 0x5d, 0x94, 0x3a, 0x41,
  0xd3, 0x40, 0xbd, 0x41, 0xfa, 0x41, 0x53, 0x41, 0xda, 0xcc, 0x38, 0x41,
  0xae, 0x4c, 0x2d, 0xc2, 0x4e, 0x35, 0x2a, 0xc2, 0x95, 0xa8, 0x1b, 0xc2,
  0x6b, 0x06, 0x40, 0x41, 0x95, 0x08, 0x0f, 0x41, 0xec, 0xc3, 0xf6, 0x40,
  0x63, 0x28, 0x86, 0x41, 0x63, 0x81, 0x0c, 0x41, 0x47, 0xe6, 0xfc, 0x40,
  0xae, 0xcb, 0x72, 0x41, 0xcf, 0x53, 0x2c, 0xc2, 0xe5, 0xe0, 0xfa, 0x40,
  0x20, 0xbc, 0xf1, 0x40, 0x80, 0xde, 0x16, 0x41, 0x49, 0x40, 0xef, 0x40,
  0x0f, 0xd9, 0xea, 0x40, 0xed, 0xd7, 0x10, 0x41, 0x14, 0x0f, 0xef, 0x40,
  0xbe, 0x46, 0x2a, 0xc2, 0xce, 0x5b, 0x05, 0x41, 0xb9, 0x22, 0x29, 0xc2,
  0xda, 0x4a, 0x14, 0x42, 0x3e, 0xcc, 0xf7, 0x40, 0x48, 0xbe, 0xf2, 0x40,
  0x33, 0xee, 0xec, 0x40, 0x51, 0x6b, 0x35, 0x42, 0x25, 0x4a, 0x1a, 0xc1,
  0x2a, 0x20, 0x35, 0x42, 0xaa, 0xda, 0x20, 0xc1, 0x37, 0xce, 0xb1, 0xc1,
  0xdc, 0xe9, 0x3d, 0xc1, 0x12, 0xf2, 0x2b, 0xc1, 0x25, 0xc2, 0x35, 0x42,
  0x0c, 0x22, 0x35, 0x42, 0x6e, 0xfa, 0x0e, 0x42, 0x29, 0xd5, 0x2f, 0xc1,
  0x81, 0x03, 0x00, 0xc1, 0xea, 0xbb, 0x12, 0xc1, 0x3b, 0x64, 0x71, 0xc1,
  0xba, 0x45, 0x04, 0xc1, 0xde, 0x2c, 0x2b, 0xc1, 0x80, 0x0b, 0x60, 0xc1,
  0x8c, 0x64, 0x36, 0x42, 0xec, 0x3b, 0xe8, 0xc0, 0xa3, 0xb6, 0xf2, 0xc0,
  0x15, 0xed, 0x04, 0xc1, 0xc8, 0x49, 0xd1, 0xc0, 0xe8, 0x40, 0xda, 0xc0,
  0x9a, 0xb9, 0x02, 0xc1, 0xa5, 0xbe, 0x2b, 0xc1, 0x5b, 0xa2, 0x33, 0x42,
  0x5a, 0x26, 0xee, 0xc0, 0x3e, 0xea, 0x33, 0x42, 0x32, 0x12, 0x0d, 0xc2,
  0xee, 0x15, 0x17, 0xc1, 0xe5, 0x54, 0xef, 0xc0, 0x9e, 0xfa, 0xed, 0xc0,
  0x95, 0x33, 0x35, 0x42, 0x1d, 0x3e, 0x1d, 0xc1, 0xde, 0x3c, 0x33, 0x42,
  0xc0, 0xdc, 0x25, 0xc1, 0x64, 0xb3, 0xb2, 0xc1, 0xc1, 0x5a, 0x3e, 0xc1,
  0x67, 0x25, 0x2c, 0xc1, 0x2d, 0x98, 0x35, 0x42, 0xdb, 0xa0, 0x34, 0x42,
  0xc1, 0x91, 0x0c, 0x42, 0x45, 0x3f, 0x2c, 0xc1, 0x26, 0x29, 0xfa, 0xc0,
  0x5e, 0x44, 0x0d, 0xc1, 0xe3, 0xee, 0x76, 0xc1, 0x5c, 0xb4, 0xf9, 0xc0,
  0x3c, 0x21, 0x25, 0xc1, 0x31, 0x5a, 0x60, 0xc1, 0x66, 0xde, 0x35, 0x42,
  0x36, 0xff, 0xdd, 0xc0, 0x5d, 0x9a, 0xed, 0xc0, 0x1f, 0x14, 0xfb, 0xc0,
  0x5b, 0xd0, 0xd8, 0xc0, 0xce, 0x8b, 0xd1, 0xc0, 0x9c, 0xdf, 0x03, 0xc1,
  0x52, 0x8a, 0x22, 0xc1, 0xe6, 0x7b, 0x34, 0x42, 0xbc, 0x46, 0xf8, 0xc0,
  0xad, 0x76, 0x32, 0x42, 0x50, 0x6e, 0x0e, 0xc2, 0x52, 0xcb, 0x13, 0xc1,
  0x17, 0xc1, 0xde, 0xc0, 0x90, 0xf2, 0xec, 0xc0, 0xd5, 0xbe, 0x35, 0x42,
  0x6c, 0x7d, 0x19, 0xc1, 0xd0, 0xe4, 0x33, 0x42, 0x3c, 0x40, 0x24, 0xc1,
  0x96, 0x3f, 0xb3, 0xc1, 0x19, 0x2c, 0x39, 0xc1, 0x97, 0xb1, 0x2d, 0xc1,
  0xce, 0xd5, 0x36, 0x42, 0x42, 0xb1, 0x35, 0x42, 0x1a, 0xc5, 0x0d, 0x42,
  0xe0, 0xaf, 0x34, 0xc1, 0x04, 0x0b, 0xf2, 0xc0, 0x13, 0xec, 0x16, 0xc1,
  0x9c, 0x68, 0x7a, 0xc1, 0x75, 0x90, 0x01, 0xc1, 0x6b, 0x57, 0x29, 0xc1,
  0x07, 0xb6, 0x64, 0xc1, 0xd4, 0xf6, 0x36, 0x42, 0xd3, 0xe2, 0xea, 0xc0,
  0x7e, 0x6a, 0xea, 0xc0, 0x03, 0x74, 0x06, 0xc1, 0xcc, 0x1c, 0xe1, 0xc0,
  0x6d, 0x2a, 0xd8, 0xc0, 0x49, 0x41, 0x05, 0xc1, 0x14, 0x5b, 0x2c, 0xc1,
  0x48, 0xfe, 0x32, 0x42, 0x5f, 0xb3, 0xf6, 0xc0, 0x6f, 0x2e, 0x33, 0x42,
  0x85, 0x55, 0x0e, 0xc2, 0x40, 0x70, 0x10, 0xc1, 0x04, 0x03, 0xe3, 0xc0,
  0x00, 0x36, 0xf5, 0xc0, 0x55, 0xf1, 0x2f, 0xc2, 0x58, 0x84, 0x30, 0xc1,
  0x35, 0x2b, 0x2e, 0xc2, 0x3f, 0x2c, 0x38, 0x41, 0x85, 0x0f, 0xbc, 0x41,
  0x4c, 0x55, 0x48, 0x41, 0xc2, 0x0e, 0x36, 0x41, 0x33, 0x14, 0x2e, 0xc2,
  0x1b, 0xa7, 0x2c, 0xc2, 0xea, 0xa9, 0x20, 0xc2, 0x32, 0x24, 0x3c, 0x41,
  0x9b, 0x43, 0x05, 0x41, 0x05, 0xc0, 0xf3, 0x40, 0xc9, 0x4c, 0x85, 0x41,
  0x29, 0x38, 0x13, 0x41, 0x81, 0x28, 0xf8, 0x40, 0x7b, 0x5c, 0x76, 0x41,
  0x16, 0x49, 0x30, 0xc2, 0xba, 0x61, 0xeb, 0x40, 0xd1, 0x6c, 0xf9, 0x40,
  0xb1, 0x6b, 0x11, 0x41, 0x73, 0xe9, 0xf5, 0x40, 0xdf, 0xc2, 0xf9, 0x40,
  0x38, 0x0e, 0x14, 0x41, 0x4b, 0x5b, 0xf6, 0x40, 0x48, 0xe2, 0x2d, 0xc2,
  0x20, 0x90, 0x0b, 0x41, 0x02, 0x31, 0x2d, 0xc2, 0x99, 0x10, 0x13, 0x42,
  0xce, 0xa0, 0xef, 0x40, 0xc0, 0x68, 0xf5, 0x40, 0x3b, 0x8c, 0xf3, 0x40,
  0xab, 0x0e, 0x2d, 0xc2, 0x76, 0x65, 0x73, 0xc1, 0x27, 0x2a, 0x2d, 0xc2,
  0x91, 0xd0, 0x2f, 0x41, 0xcf, 0xf9, 0xc0, 0x41, 0x10, 0x2f, 0x52, 0x41,
  0x2d, 0x03, 0x3e, 0x41, 0xf9, 0xdc, 0x2d, 0xc2, 0x47, 0xc2, 0x2c, 0xc2,
  0x0d, 0x7a, 0x1f, 0xc2, 0xc8, 0xea, 0x3a, 0x41, 0xb6, 0xc1, 0x0c, 0x41,
  0xe1, 0x89, 0xed, 0x40, 0x8f, 0x36, 0x85, 0x41, 0x21, 0x10, 0x0d, 0x41,
  0x76, 0x77, 0xee, 0x40, 0xb8, 0x45, 0x77, 0x41, 0x6e, 0x81, 0x2d, 0xc2,
  0xb5, 0xfe, 0xeb, 0x40, 0x63, 0x7e, 0xf1, 0x40, 0x8c, 0x44, 0x14, 0x41,
  0x32, 0x7c, 0xec, 0x40, 0x72, 0x69, 0xf6, 0x40, 0xb0, 0xb8, 0x11, 0x41,
  0xab, 0x1e, 0xe7, 0x40, 0x1c, 0xac, 0x2a, 0xc2, 0xca, 0xb9, 0x09, 0x41,
  0x4e, 0x13, 0x2c, 0xc2, 0x22, 0xe6, 0x13, 0x42, 0x7c, 0x88, 0xf9, 0x40,
  0x43, 0x84, 0xe8, 0x40, 0x40, 0xc6, 0xed, 0x40, 0x33, 0x32, 0x26, 0xc2,
  0x72, 0x76, 0x6a, 0xc2, 0x8e, 0x8e, 0x24, 0xc2, 0xdf, 0x1d, 0x38, 0x41,
  0x36, 0xc4, 0xbf, 0x41, 0x3d, 0x97, 0x4c, 0x41, 0xdf, 0x7a, 0x39, 0x41,
  0xe5, 0x7d, 0x26, 0xc2, 0x6a, 0x2d, 0x22, 0xc2, 0x90, 0x04, 0x15, 0xc2,
  0x0c, 0xd3, 0x44, 0x41, 0xbf, 0x4b, 0x0e, 0x41, 0xa6, 0x52, 0xf1, 0x40,
  0x41, 0x85, 0x85, 0x41, 0xab, 0xa0, 0x0c, 0x41, 0xf0, 0x53, 0xfc, 0x40,
  0x3e, 0x1e, 0x7a, 0x41, 0x27, 0xa9, 0x24, 0xc2, 0x56, 0x40, 0xf4, 0x40,
  0x4c, 0x14, 0xef, 0x40, 0x96, 0x57, 0x15, 0x41, 0xdf, 0x29, 0xf2, 0x40,
  0xd6, 0x38, 0xfd, 0x40, 0x2a, 0xb7, 0x10, 0x41, 0x89, 0xa2, 0xea, 0x40,
  0xe7, 0xf6, 0x22, 0xc2, 0xb0, 0xc7, 0x0e, 0x41, 0x97, 0xd6, 0x20, 0xc2,
  0x10, 0x31, 0x14, 0x42, 0xfe, 0xe0, 0xfa, 0x40, 0x55, 0x07, 0xf5, 0x40,
  0x0d, 0x6e, 0xfb, 0x40, 0x51, 0x65, 0x25, 0xc2, 0xb3, 0x3c, 0x72, 0xc2,
  0x44, 0x9f, 0x22, 0xc2, 0x78, 0x5e, 0x39, 0x41, 0xfa, 0x18, 0xc2, 0x41,
  0x3f, 0xc3, 0x4c, 0x41, 0x22, 0xe7, 0x3a, 0x41, 0x77, 0x95, 0x24, 0xc2,
  0x88, 0x4d, 0x21, 0xc2, 0xd5, 0x6d, 0x15, 0xc2, 0x3e, 0x87, 0x3e, 0x41,
  0x83, 0x60, 0x0b, 0x41, 0x37, 0xbc, 0xe8, 0x40, 0xcf, 0x03, 0x86, 0x41,
  0x51, 0x5a, 0x14, 0x41, 0x52, 0xc2, 0xf6, 0x40, 0x4f, 0xee, 0x78, 0x41,
  0xb0, 0xa2, 0x23, 0xc2, 0x30, 0x55, 0xf5, 0x40, 0x0c, 0xec, 0xfc, 0x40,
  0x4a, 0x15, 0x11, 0x41, 0x03, 0xd7, 0xf0, 0x40, 0xec, 0x9e, 0xf6, 0x40,
  0xdf, 0x31, 0x0f, 0x41, 0xb0, 0x57, 0xe7, 0x40, 0x95, 0x31, 0x21, 0xc2,
  0xad, 0x92, 0x0c, 0x41, 0xae, 0x37, 0x21, 0xc2, 0x0a, 0x01, 0x16, 0x42,
  0xc4, 0x67, 0xf7, 0x40, 0x26, 0xb7, 0xf5, 0x40, 0x8f, 0x21, 0xf6, 0x40,
  0x8a, 0xfe, 0xff, 0xff, 0x04, 0x00, 0x00, 0x00, 0x40, 0x00, 0x00, 0x00,
  0x7e, 0x40, 0x52, 0xc1, 0x65, 0xe9, 0x54, 0xc1, 0x6e, 0xbd, 0x4e, 0xc1,
  0x85, 0x60, 0x53, 0xc1, 0xb9, 0xe6, 0x4c, 0xc1, 0x4d, 0x8d, 0x86, 0x41,
  0xe5, 0xba, 0x52, 0xc1, 0x9d, 0xcd, 0x85, 0x41, 0x1e, 0x01, 0x86, 0x41,
  0x5a, 0x8c, 0x49, 0xc1, 0xe9, 0x44, 0x58, 0xc1, 0x54, 0x7d, 0x53, 0xc1,
  0xce, 0x84, 0x88, 0x41, 0x06, 0xa7, 0x87, 0x41, 0x39, 0x4d, 0x84, 0x41,
  0xea, 0xd9, 0x86, 0x41, 0x2c, 0xfa, 0xff, 0xff, 0x30, 0xfa, 0xff, 0xff,
  0x0f, 0x00, 0x00, 0x00, 0x4d, 0x4c, 0x49, 0x52, 0x20, 0x43, 0x6f, 0x6e,
  0x76, 0x65, 0x72, 0x74, 0x65, 0x64, 0x2e, 0x00, 0x01, 0x00, 0x00, 0x00,
  0x14, 0x00, 0x00, 0x00, 0x00, 0x00, 0x0e, 0x00, 0x18, 0x00, 0x14, 0x00,
  0x10, 0x00, 0x0c, 0x00, 0x08, 0x00, 0x04, 0x00, 0x0e, 0x00, 0x00, 0x00,
  0x14, 0x00, 0x00, 0x00, 0x1c, 0x00, 0x00, 0x00, 0x48, 0x01, 0x00, 0x00,
  0x4c, 0x01, 0x00, 0x00, 0x50, 0x01, 0x00, 0x00, 0x04, 0x00, 0x00, 0x00,
  0x6d, 0x61, 0x69, 0x6e, 0x00, 0x00, 0x00, 0x00, 0x05, 0x00, 0x00, 0x00,
  0xfc, 0x00, 0x00, 0x00, 0xb0, 0x00, 0x00, 0x00, 0x6c, 0x00, 0x00, 0x00,
  0x38, 0x00, 0x00, 0x00, 0x04, 0x00, 0x00, 0x00, 0x26, 0xff, 0xff, 0xff,
  0x10, 0x00, 0x00, 0x00, 0x00, 0x00, 0x00, 0x08, 0x0c, 0x00, 0x00, 0x00,
  0x10, 0x00, 0x00, 0x00, 0xb0, 0xfa, 0xff, 0xff, 0x01, 0x00, 0x00, 0x00,
  0x0b, 0x00, 0x00, 0x00, 0x03, 0x00, 0x00, 0x00, 0x0a, 0x00, 0x00, 0x00,
  0x01, 0x00, 0x00, 0x00, 0x03, 0x00, 0x00, 0x00, 0x9e, 0xff, 0xff, 0xff,
  0x14, 0x00, 0x00, 0x00, 0x00, 0x00, 0x00, 0x4b, 0x14, 0x00, 0x00, 0x00,
  0x18, 0x00, 0x00, 0x00, 0x01, 0x00, 0x00, 0x00, 0x8e, 0xff, 0xff, 0xff,
  0x0a, 0xd7, 0x23, 0x3c, 0x01, 0x00, 0x00, 0x00, 0x0a, 0x00, 0x00, 0x00,
  0x01, 0x00, 0x00, 0x00, 0x09, 0x00, 0x00, 0x00, 0x86, 0xff, 0xff, 0xff,
  0x10, 0x00, 0x00, 0x00, 0x00, 0x00, 0x00, 0x08, 0x0c, 0x00, 0x00, 0x00,
  0x10, 0x00, 0x00, 0x00, 0x10, 0xfb, 0xff, 0xff, 0x01, 0x00, 0x00, 0x00,
  0x09, 0x00, 0x00, 0x00, 0x03, 0x00, 0x00, 0x00, 0x08, 0x00, 0x00, 0x00,
  0x02, 0x00, 0x00, 0x00, 0x04, 0x00, 0x00, 0x00, 0x00, 0x00, 0x0e, 0x00,
  0x1a, 0x00, 0x14, 0x00, 0x10, 0x00, 0x0c, 0x00, 0x0b, 0x00, 0x04, 0x00,
  0x0e, 0x00, 0x00, 0x00, 0x1c, 0x00, 0x00, 0x00, 0x00, 0x00, 0x00, 0x4b,
  0x1c, 0x00, 0x00, 0x00, 0x20, 0x00, 0x00, 0x00, 0x01, 0x00, 0x00, 0x00,
  0x00, 0x00, 0x06, 0x00, 0x08, 0x00, 0x04, 0x00, 0x06, 0x00, 0x00, 0x00,
  0x0a, 0xd7, 0x23, 0x3c, 0x01, 0x00, 0x00, 0x00, 0x08, 0x00, 0x00, 0x00,
  0x01, 0x00, 0x00, 0x00, 0x07, 0x00, 0x00, 0x00, 0x00, 0x00, 0x0e, 0x00,
  0x14, 0x00, 0x00, 0x00, 0x10, 0x00, 0x0c, 0x00, 0x0b, 0x00, 0x04, 0x00,
  0x0e, 0x00, 0x00, 0x00, 0x10, 0x00, 0x00, 0x00, 0x00, 0x00, 0x00, 0x08,
  0x0c, 0x00, 0x00, 0x00, 0x10, 0x00, 0x00, 0x00, 0x98, 0xfb, 0xff, 0xff,
  0x01, 0x00, 0x00, 0x00, 0x07, 0x00, 0x00, 0x00, 0x03, 0x00, 0x00, 0x00,
  0x00, 0x00, 0x00, 0x00, 0x06, 0x00, 0x00, 0x00, 0x05, 0x00, 0x00, 0x00,
  0x01, 0x00, 0x00, 0x00, 0x0b, 0x00, 0x00, 0x00, 0x01, 0x00, 0x00, 0x00,
  0x00, 0x00, 0x00, 0x00, 0x0c, 0x00, 0x00, 0x00, 0x10, 0x04, 0x00, 0x00,
  0xb8, 0x03, 0x00, 0x00, 0x60, 0x03, 0x00, 0x00, 0x24, 0x03, 0x00, 0x00,
  0xe8, 0x02, 0x00, 0x00, 0x8c, 0x02, 0x00, 0x00, 0x3c, 0x02, 0x00, 0x00,
  0xb8, 0x01, 0x00, 0x00, 0x50, 0x01, 0x00, 0x00, 0xcc, 0x00, 0x00, 0x00,
  0x60, 0x00, 0x00, 0x00, 0x04, 0x00, 0x00, 0x00, 0x36, 0xfc, 0xff, 0xff,
  0x00, 0x00, 0x00, 0x01, 0x14, 0x00, 0x00, 0x00, 0x1c, 0x00, 0x00, 0x00,
  0x1c, 0x00, 0x00, 0x00, 0x0c, 0x00, 0x00, 0x00, 0x34, 0x00, 0x00, 0x00,
  0x02, 0x00, 0x00, 0x00, 0xff, 0xff, 0xff, 0xff, 0x01, 0x00, 0x00, 0x00,
  0x20, 0xfc, 0xff, 0xff, 0x1b, 0x00, 0x00, 0x00, 0x53, 0x74, 0x61, 0x74,
  0x65, 0x66, 0x75, 0x6c, 0x50, 0x61, 0x72, 0x74, 0x69, 0x74, 0x69, 0x6f,
  0x6e, 0x65, 0x64, 0x43, 0x61, 0x6c, 0x6c, 0x5f, 0x31, 0x3a, 0x30, 0x00,
  0x02, 0x00, 0x00, 0x00, 0x01, 0x00, 0x00, 0x00, 0x01, 0x00, 0x00, 0x00,
  0x8e, 0xfc, 0xff, 0xff, 0x00, 0x00, 0x00, 0x01, 0x14, 0x00, 0x00, 0x00,
  0x1c, 0x00, 0x00, 0x00, 0x1c, 0x00, 0x00, 0x00, 0x0b, 0x00, 0x00, 0x00,
  0x44, 0x00, 0x00, 0x00, 0x02, 0x00, 0x00, 0x00, 0xff, 0xff, 0xff, 0xff,
  0x10, 0x00, 0x00, 0x00, 0x78, 0xfc, 0xff, 0xff, 0x28, 0x00, 0x00, 0x00,
  0x73, 0x65, 0x71, 0x75, 0x65, 0x6e, 0x74, 0x69, 0x61, 0x6c, 0x5f, 0x31,
  0x5f, 0x31, 0x2f, 0x6c, 0x65, 0x61, 0x6b, 0x79, 0x5f, 0x72, 0x65, 0x5f,
  0x6c, 0x75, 0x5f, 0x31, 0x5f, 0x32, 0x2f, 0x4c, 0x65, 0x61, 0x6b, 0x79,
  0x52, 0x65, 0x6c, 0x75, 0x00, 0x00, 0x00, 0x00, 0x02, 0x00, 0x00, 0x00,
  0x01, 0x00, 0x00, 0x00, 0x10, 0x00, 0x00, 0x00, 0xf6, 0xfc, 0xff, 0xff,
  0x00, 0x00, 0x00, 0x01, 0x14, 0x00, 0x00, 0x00, 0x1c, 0x00, 0x00, 0x00,
  0x1c, 0x00, 0x00, 0x00, 0x0a, 0x00, 0x00, 0x00, 0x5c, 0x00, 0x00, 0x00,
  0x02, 0x00, 0x00, 0x00, 0xff, 0xff, 0xff, 0xff, 0x10, 0x00, 0x00, 0x00,
  0xe0, 0xfc, 0xff, 0xff, 0x40, 0x00, 0x00, 0x00, 0x73, 0x65, 0x71, 0x75,
  0x65, 0x6e, 0x74, 0x69, 0x61, 0x6c, 0x5f, 0x31, 0x5f, 0x31, 0x2f, 0x64,
  0x65, 0x6e, 0x73, 0x65, 0x5f, 0x35, 0x5f, 0x31, 0x2f, 0x4d, 0x61, 0x74,
  0x4d, 0x75, 0x6c, 0x3b, 0x73, 0x65, 0x71, 0x75, 0x65, 0x6e, 0x74, 0x69,
  0x61, 0x6c, 0x5f, 0x31, 0x5f, 0x31, 0x2f, 0x64, 0x65, 0x6e, 0x73, 0x65,
  0x5f, 0x35, 0x5f, 0x31, 0x2f, 0x42, 0x69, 0x61, 0x73, 0x41, 0x64, 0x64,
  0x00, 0x00, 0x00, 0x00, 0x02, 0x00, 0x00, 0x00, 0x01, 0x00, 0x00, 0x00,
  0x10, 0x00, 0x00, 0x00, 0x76, 0xfd, 0xff, 0xff, 0x00, 0x00, 0x00, 0x01,
  0x14, 0x00, 0x00, 0x00, 0x1c, 0x00, 0x00, 0x00, 0x1c, 0x00, 0x00, 0x00,
  0x09, 0x00, 0x00, 0x00, 0x40, 0x00, 0x00, 0x00, 0x02, 0x00, 0x00, 0x00,
  0xff, 0xff, 0xff, 0xff, 0x20, 0x00, 0x00, 0x00, 0x60, 0xfd, 0xff, 0xff,
  0x26, 0x00, 0x00, 0x00, 0x73, 0x65, 0x71, 0x75, 0x65, 0x6e, 0x74, 0x69,
  0x61, 0x6c, 0x5f, 0x31, 0x5f, 0x31, 0x2f, 0x6c, 0x65, 0x61, 0x6b, 0x79,
  0x5f, 0x72, 0x65, 0x5f, 0x6c, 0x75, 0x5f, 0x31, 0x2f, 0x4c, 0x65, 0x61,
  0x6b, 0x79, 0x52, 0x65, 0x6c, 0x75, 0x00, 0x00, 0x02, 0x00, 0x00, 0x00,
  0x01, 0x00, 0x00, 0x00, 0x20, 0x00, 0x00, 0x00, 0xda, 0xfd, 0xff, 0xff,
  0x00, 0x00, 0x00, 0x01, 0x14, 0x00, 0x00, 0x00, 0x1c, 0x00, 0x00, 0x00,
  0x1c, 0x00, 0x00, 0x00, 0x08, 0x00, 0x00, 0x00, 0x5c, 0x00, 0x00, 0x00,
  0x02, 0x00, 0x00, 0x00, 0xff, 0xff, 0xff, 0xff, 0x20, 0x00, 0x00, 0x00,
  0xc4, 0xfd, 0xff, 0xff, 0x40, 0x00, 0x00, 0x00, 0x73, 0x65, 0x71, 0x75,
  0x65, 0x6e, 0x74, 0x69, 0x61, 0x6c, 0x5f, 0x31, 0x5f, 0x31, 0x2f, 0x64,
  0x65, 0x6e, 0x73, 0x65, 0x5f, 0x34, 0x5f, 0x31, 0x2f, 0x4d, 0x61, 0x74,
  0x4d, 0x75, 0x6c, 0x3b, 0x73, 0x65, 0x71, 0x75, 0x65, 0x6e, 0x74, 0x69,
  0x61, 0x6c, 0x5f, 0x31, 0x5f, 0x31, 0x2f, 0x64, 0x65, 0x6e, 0x73, 0x65,
  0x5f, 0x34, 0x5f, 0x31, 0x2f, 0x42, 0x69, 0x61, 0x73, 0x41, 0x64, 0x64,
  0x00, 0x00, 0x00, 0x00, 0x02, 0x00, 0x00, 0x00, 0x01, 0x00, 0x00, 0x00,
  0x20, 0x00, 0x00, 0x00, 0xae, 0xfe, 0xff, 0xff, 0x00, 0x00, 0x00, 0x01,
  0x10, 0x00, 0x00, 0x00, 0x10, 0x00, 0x00, 0x00, 0x07, 0x00, 0x00, 0x00,
  0x2c, 0x00, 0x00, 0x00, 0x34, 0xfe, 0xff, 0xff, 0x1f, 0x00, 0x00, 0x00,
  0x73, 0x65, 0x71, 0x75, 0x65, 0x6e, 0x74, 0x69, 0x61, 0x6c, 0x5f, 0x31,
  0x5f, 0x31, 0x2f, 0x64, 0x65, 0x6e, 0x73, 0x65, 0x5f, 0x34, 0x5f, 0x31,
  0x2f, 0x4d, 0x61, 0x74, 0x4d, 0x75, 0x6c, 0x00, 0x02, 0x00, 0x00, 0x00,
  0x20, 0x00, 0x00, 0x00, 0x05, 0x00, 0x00, 0x00, 0xfa, 0xfe, 0xff, 0xff,
  0x00, 0x00, 0x00, 0x01, 0x10, 0x00, 0x00, 0x00, 0x10, 0x00, 0x00, 0x00,
  0x06, 0x00, 0x00, 0x00, 0x3c, 0x00, 0x00, 0x00, 0x80, 0xfe, 0xff, 0xff,
  0x2f, 0x00, 0x00, 0x00, 0x73, 0x65, 0x71, 0x75, 0x65, 0x6e, 0x74, 0x69,
  0x61, 0x6c, 0x5f, 0x31, 0x5f, 0x31, 0x2f, 0x64, 0x65, 0x6e, 0x73, 0x65,
  0x5f, 0x34, 0x5f, 0x31, 0x2f, 0x42, 0x69, 0x61, 0x73, 0x41, 0x64, 0x64,
  0x2f, 0x52, 0x65, 0x61, 0x64, 0x56, 0x61, 0x72, 0x69, 0x61, 0x62, 0x6c,
  0x65, 0x4f, 0x70, 0x00, 0x01, 0x00, 0x00, 0x00, 0x20, 0x00, 0x00, 0x00,
  0x52, 0xff, 0xff, 0xff, 0x00, 0x00, 0x00, 0x01, 0x10, 0x00, 0x00, 0x00,
  0x10, 0x00, 0x00, 0x00, 0x05, 0x00, 0x00, 0x00, 0x1c, 0x00, 0x00, 0x00,
  0xd8, 0xfe, 0xff, 0xff, 0x0f, 0x00, 0x00, 0x00, 0x61, 0x72, 0x69, 0x74,
  0x68, 0x2e, 0x63, 0x6f, 0x6e, 0x73, 0x74, 0x61, 0x6e, 0x74, 0x33, 0x00,
  0x01, 0x00, 0x00, 0x00, 0x10, 0x00, 0x00, 0x00, 0x8a, 0xff, 0xff, 0xff,
  0x00, 0x00, 0x00, 0x01, 0x10, 0x00, 0x00, 0x00, 0x10, 0x00, 0x00, 0x00,
  0x04, 0x00, 0x00, 0x00, 0x1c, 0x00, 0x00, 0x00, 0x10, 0xff, 0xff, 0xff,
  0x0f, 0x00, 0x00, 0x00, 0x61, 0x72, 0x69, 0x74, 0x68, 0x2e, 0x63, 0x6f,
  0x6e, 0x73, 0x74, 0x61, 0x6e, 0x74, 0x32, 0x00, 0x01, 0x00, 0x00, 0x00,
  0x01, 0x00, 0x00, 0x00, 0xc2, 0xff, 0xff, 0xff, 0x00, 0x00, 0x00, 0x01,
  0x10, 0x00, 0x00, 0x00, 0x10, 0x00, 0x00, 0x00, 0x03, 0x00, 0x00, 0x00,
  0x1c, 0x00, 0x00, 0x00, 0x48, 0xff, 0xff, 0xff, 0x0f, 0x00, 0x00, 0x00,
  0x61, 0x72, 0x69, 0x74, 0x68, 0x2e, 0x63, 0x6f, 0x6e, 0x73, 0x74, 0x61,
  0x6e, 0x74, 0x31, 0x00, 0x02, 0x00, 0x00, 0x00, 0x10, 0x00, 0x00, 0x00,
  0x20, 0x00, 0x00, 0x00, 0x00, 0x00, 0x16, 0x00, 0x18, 0x00, 0x14, 0x00,
  0x00, 0x00, 0x10, 0x00, 0x0c, 0x00, 0x08, 0x00, 0x00, 0x00, 0x00, 0x00,
  0x00, 0x00, 0x07, 0x00, 0x16, 0x00, 0x00, 0x00, 0x00, 0x00, 0x00, 0x01,
  0x10, 0x00, 0x00, 0x00, 0x10, 0x00, 0x00, 0x00, 0x02, 0x00, 0x00, 0x00,
  0x1c, 0x00, 0x00, 0x00, 0x9c, 0xff, 0xff, 0xff, 0x0e, 0x00, 0x00, 0x00,
  0x61, 0x72, 0x69, 0x74, 0x68, 0x2e, 0x63, 0x6f, 0x6e, 0x73, 0x74, 0x61,
  0x6e, 0x74, 0x00, 0x00, 0x02, 0x00, 0x00, 0x00, 0x01, 0x00, 0x00, 0x00,
  0x10, 0x00, 0x00, 0x00, 0x00, 0x00, 0x16, 0x00, 0x1c, 0x00, 0x18, 0x00,
  0x00, 0x00, 0x14, 0x00, 0x10, 0x00, 0x0c, 0x00, 0x00, 0x00, 0x00, 0x00,
  0x08, 0x00, 0x07, 0x00, 0x16, 0x00, 0x00, 0x00, 0x00, 0x00, 0x00, 0x01,
  0x14, 0x00, 0x00, 0x00, 0x20, 0x00, 0x00, 0x00, 0x20, 0x00, 0x00, 0x00,
  0x01, 0x00, 0x00, 0x00, 0x3c, 0x00, 0x00, 0x00, 0x02, 0x00, 0x00, 0x00,
  0xff, 0xff, 0xff, 0xff, 0x05, 0x00, 0x00, 0x00, 0x04, 0x00, 0x04, 0x00,
  0x04, 0x00, 0x00, 0x00, 0x1f, 0x00, 0x00, 0x00, 0x73, 0x65, 0x72, 0x76,
  0x69, 0x6e, 0x67, 0x5f, 0x64, 0x65, 0x66, 0x61, 0x75, 0x6c, 0x74, 0x5f,
  0x69, 0x6e, 0x70, 0x75, 0x74, 0x5f, 0x6c, 0x61, 0x79, 0x65, 0x72, 0x5f,
  0x32, 0x3a, 0x30, 0x00, 0x02, 0x00, 0x00, 0x00, 0x01, 0x00, 0x00, 0x00,
  0x05, 0x00, 0x00, 0x00, 0x02, 0x00, 0x00, 0x00, 0x20, 0x00, 0x00, 0x00,
  0x04, 0x00, 0x00, 0x00, 0xf4, 0xff, 0xff, 0xff, 0x62, 0x00, 0x00, 0x00,
  0x00, 0x00, 0x00, 0x62, 0x0c, 0x00, 0x0c, 0x00, 0x0b, 0x00, 0x00, 0x00,
  0x00, 0x00, 0x04, 0x00, 0x0c, 0x00, 0x00, 0x00, 0x09, 0x00, 0x00, 0x00,
  0x00, 0x00, 0x00, 0x09
};
const unsigned int model_len = 5116;
