#include "model.h"

const unsigned char model[] = {
  0x1c, 0x00, 0x00, 0x00, 0x54, 0x46, 0x4c, 0x33, 0x14, 0x00, 0x20, 0x00,
  0x1c, 0x00, 0x18, 0x00, 0x14, 0x00, 0x10, 0x00, 0x0c, 0x00, 0x00, 0x00,
  0x08, 0x00, 0x04, 0x00, 0x14, 0x00, 0x00, 0x00, 0x1c, 0x00, 0x00, 0x00,
  0x98, 0x00, 0x00, 0x00, 0xf0, 0x00, 0x00, 0x00, 0x9c, 0x0d, 0x00, 0x00,
  0xac, 0x0d, 0x00, 0x00, 0x98, 0x13, 0x00, 0x00, 0x03, 0x00, 0x00, 0x00,
  0x01, 0x00, 0x00, 0x00, 0x10, 0x00, 0x00, 0x00, 0x00, 0x00, 0x0a, 0x00,
  0x10, 0x00, 0x0c, 0x00, 0x08, 0x00, 0x04, 0x00, 0x0a, 0x00, 0x00, 0x00,
  0x0c, 0x00, 0x00, 0x00, 0x1c, 0x00, 0x00, 0x00, 0x3c, 0x00, 0x00, 0x00,
  0x0f, 0x00, 0x00, 0x00, 0x73, 0x65, 0x72, 0x76, 0x69, 0x6e, 0x67, 0x5f,
  0x64, 0x65, 0x66, 0x61, 0x75, 0x6c, 0x74, 0x00, 0x01, 0x00, 0x00, 0x00,
  0x04, 0x00, 0x00, 0x00, 0x90, 0xff, 0xff, 0xff, 0x0b, 0x00, 0x00, 0x00,
  0x04, 0x00, 0x00, 0x00, 0x08, 0x00, 0x00, 0x00, 0x6f, 0x75, 0x74, 0x70,
  0x75, 0x74, 0x5f, 0x30, 0x00, 0x00, 0x00, 0x00, 0x01, 0x00, 0x00, 0x00,
  0x04, 0x00, 0x00, 0x00, 0xb6, 0xf1, 0xff, 0xff, 0x04, 0x00, 0x00, 0x00,
  0x0d, 0x00, 0x00, 0x00, 0x69, 0x6e, 0x70, 0x75, 0x74, 0x5f, 0x6c, 0x61,
  0x79, 0x65, 0x72, 0x5f, 0x32, 0x00, 0x00, 0x00, 0x02, 0x00, 0x00, 0x00,
  0x34, 0x00, 0x00, 0x00, 0x04, 0x00, 0x00, 0x00, 0xdc, 0xff, 0xff, 0xff,
  0x0e, 0x00, 0x00, 0x00, 0x04, 0x00, 0x00, 0x00, 0x13, 0x00, 0x00, 0x00,
  0x43, 0x4f, 0x4e, 0x56, 0x45, 0x52, 0x53, 0x49, 0x4f, 0x4e, 0x5f, 0x4d,
  0x45, 0x54, 0x41, 0x44, 0x41, 0x54, 0x41, 0x00, 0x08, 0x00, 0x0c, 0x00,
  0x08, 0x00, 0x04, 0x00, 0x08, 0x00, 0x00, 0x00, 0x0d, 0x00, 0x00, 0x00,
  0x04, 0x00, 0x00, 0x00, 0x13, 0x00, 0x00, 0x00, 0x6d, 0x69, 0x6e, 0x5f,
  0x72, 0x75, 0x6e, 0x74, 0x69, 0x6d, 0x65, 0x5f, 0x76, 0x65, 0x72, 0x73,
  0x69, 0x6f, 0x6e, 0x00, 0x0f, 0x00, 0x00, 0x00, 0xa8, 0x0c, 0x00, 0x00,
  0xa0, 0x0c, 0x00, 0x00, 0x50, 0x0c, 0x00, 0x00, 0x40, 0x04, 0x00, 0x00,
  0x2c, 0x04, 0x00, 0x00, 0xdc, 0x03, 0x00, 0x00, 0x4c, 0x03, 0x00, 0x00,
  0xbc, 0x00, 0x00, 0x00, 0xb4, 0x00, 0x00, 0x00, 0xac, 0x00, 0x00, 0x00,
  0xa4, 0x00, 0x00, 0x00, 0x9c, 0x00, 0x00, 0x00, 0x94, 0x00, 0x00, 0x00,
  0x74, 0x00, 0x00, 0x00, 0x04, 0x00, 0x00, 0x00, 0x6e, 0xf2, 0xff, 0xff,
  0x04, 0x00, 0x00, 0x00, 0x60, 0x00, 0x00, 0x00, 0x10, 0x00, 0x00, 0x00,
  0x00, 0x00, 0x00, 0x00, 0x08, 0x00, 0x0e, 0x00, 0x08, 0x00, 0x04, 0x00,
  0x08, 0x00, 0x00, 0x00, 0x10, 0x00, 0x00, 0x00, 0x24, 0x00, 0x00, 0x00,
  0x00, 0x00, 0x06, 0x00, 0x08, 0x00, 0x04, 0x00, 0x06, 0x00, 0x00, 0x00,
  0x04, 0x00, 0x00, 0x00, 0x00, 0x00, 0x00, 0x00, 0x0c, 0x00, 0x18, 0x00,
  0x14, 0x00, 0x10, 0x00, 0x0c, 0x00, 0x04, 0x00, 0x0c, 0x00, 0x00, 0x00,
  0xfb, 0x41, 0x81, 0x10, 0xc6, 0x30, 0x50, 0xe0, 0x02, 0x00, 0x00, 0x00,
  0x02, 0x00, 0x00, 0x00, 0x04, 0x00, 0x00, 0x00, 0x06, 0x00, 0x00, 0x00,
  0x32, 0x2e, 0x31, 0x39, 0x2e, 0x30, 0x00, 0x00, 0xda, 0xf2, 0xff, 0xff,
  0x04, 0x00, 0x00, 0x00, 0x10, 0x00, 0x00, 0x00, 0x31, 0x2e, 0x31, 0x33,
  0x2e, 0x31, 0x00, 0x00, 0x00, 0x00, 0x00, 0x00, 0x00, 0x00, 0x00, 0x00,
  0x4c, 0xee, 0xff, 0xff, 0x50, 0xee, 0xff, 0xff, 0x54, 0xee, 0xff, 0xff,
  0x58, 0xee, 0xff, 0xff, 0x5c, 0xee, 0xff, 0xff, 0x0a, 0xf3, 0xff, 0xff,
  0x04, 0x00, 0x00, 0x00, 0x80, 0x02, 0x00, 0x00, 0xfb, 0x3e, 0x3d, 0xc0,
  0xaa, 0x70, 0x54, 0xbf, 0x75, 0x40, 0x0d, 0xc0, 0x6b, 0x1b, 0x3a, 0xc0,
  0xbd, 0x35, 0x7c, 0xc2, 0x0a, 0x60, 0x40, 0x3e, 0x30, 0x16, 0xe7, 0x3e,
  0x0c, 0xd8, 0x7e, 0x3e, 0x2a, 0xa7, 0x7d, 0x3e, 0x64, 0x75, 0x88, 0xc1,
  0xcb, 0x3c, 0x42, 0xc0, 0x75, 0x67, 0x94, 0xbf, 0x93, 0x37, 0x14, 0xc0,
  0x77, 0xd8, 0x4a, 0xc0, 0xdf, 0xae, 0x7b, 0xc2, 0x9e, 0x0a, 0xeb, 0xbc,
  0xb3, 0x96, 0x42, 0xba, 0x4b, 0x1f, 0x08, 0xbd, 0x20, 0x42, 0xa6, 0xbd,
  0xb0, 0xba, 0x2e, 0x41, 0xa5, 0xb4, 0x58, 0x3d, 0xad, 0xc2, 0x3c, 0x3d,
  0x8a, 0xad, 0x64, 0x3d, 0x47, 0xcd, 0x51, 0x3d, 0x47, 0xbd, 0x48, 0x41,
  0x6d, 0xde, 0x8b, 0x3c, 0xe5, 0xe3, 0x9d, 0x3c, 0xf7, 0xc6, 0x8d, 0x3c,
  0xdf, 0x5c, 0x8a, 0x39, 0x9f, 0x3a, 0x33, 0x41, 0xcf, 0x40, 0x1e, 0x3c,
  0xe5, 0x51, 0x25, 0xbc, 0x6f, 0x73, 0x83, 0x3c, 0x55, 0xb5, 0xb1, 0xbc,
  0x23, 0xbe, 0x2e, 0x41, 0x4a, 0xad, 0x38, 0xc0, 0x24, 0x9d, 0x21, 0xbf,
  0xb8, 0x0b, 0x0e, 0xc0, 0xf4, 0xb8, 0x4e, 0xc0, 0x7b, 0x34, 0x7c, 0xc2,
  0xb3, 0xcc, 0x35, 0xc0, 0x23, 0x03, 0xa5, 0xbf, 0x59, 0xc8, 0x09, 0xc0,
  0x21, 0x62, 0x5c, 0xc0, 0x30, 0x9e, 0x7c, 0xc2, 0xed, 0x90, 0x88, 0xc0,
  0x2a, 0x3d, 0x30, 0xc0, 0x69, 0xd1, 0x70, 0xc0, 0x17, 0x94, 0x96, 0xc0,
  0xe6, 0x88, 0x64, 0xc2, 0xb7, 0x38, 0x51, 0x3c, 0xa9, 0xaf, 0x81, 0x3c,
  0xd1, 0x04, 0x00, 0x3c, 0x73, 0x0d, 0x3d, 0xbc, 0x71, 0x51, 0x2f, 0x41,
  0x36, 0xc1, 0xa8, 0xbb, 0xc3, 0x1f, 0xf7, 0xbd, 0x59, 0x8d, 0x77, 0xbd,
  0xb2, 0x58, 0x7f, 0x39, 0x4e, 0x03, 0x23, 0x41, 0x1e, 0xa6, 0x9d, 0xbd,
  0xc4, 0xa2, 0x00, 0xbe, 0xc2, 0x37, 0xbe, 0xbd, 0x0e, 0x78, 0xe1, 0xbd,
  0x45, 0xf6, 0x16, 0x41, 0xe4, 0xeb, 0x9e, 0xbd, 0x53, 0x23, 0xeb, 0x3d,
  0x71, 0x08, 0x43, 0xbd, 0xec, 0xa2, 0xc0, 0xbd, 0x1b, 0x1e, 0x3d, 0x41,
  0xe9, 0xd4, 0x48, 0x3c, 0x99, 0x66, 0x40, 0xbd, 0x61, 0x23, 0x90, 0xba,
  0x7d, 0xbf, 0xe4, 0x3c, 0xc6, 0x5d, 0x1f, 0x41, 0x48, 0x23, 0xd1, 0xbd,
  0xe6, 0xd2, 0xae, 0xbd, 0x7c, 0x23, 0xab, 0xbd, 0xb4, 0x0f, 0x04, 0xbe,
  0x11, 0x8f, 0x13, 0x41, 0xaf, 0x91, 0xbc, 0x3d, 0x54, 0x1d, 0xe7, 0xbd,
  0xa4, 0x8f, 0x81, 0x3d, 0x88, 0x24, 0xd9, 0x3d, 0x58, 0x28, 0x39, 0x41,
  0x3b, 0xb2, 0x32, 0xc0, 0x55, 0x05, 0xa2, 0xbf, 0xfe, 0x1d, 0xfc, 0xbf,
  0xd7, 0x4a, 0x3f, 0xc0, 0xb6, 0xfe, 0x7b, 0xc2, 0xf4, 0xdc, 0x95, 0xbd,
  0xf6, 0x06, 0x1d, 0xbe, 0x9a, 0xd7, 0xeb, 0xbd, 0xd2, 0xfd, 0xa9, 0xbd,
  0x47, 0xbe, 0x16, 0x41, 0x0a, 0x8f, 0xb2, 0xbd, 0xfe, 0xe9, 0xbc, 0xbd,
  0xa8, 0xe2, 0xb8, 0xbd, 0x56, 0xe9, 0xf1, 0xbd, 0x94, 0xb4, 0x13, 0x41,
  0xca, 0xcb, 0x85, 0x3d, 0xab, 0x8a, 0x0c, 0x3d, 0x6e, 0x9f, 0xde, 0x3d,
  0x06, 0x16, 0x27, 0x3e, 0x0c, 0xc3, 0x22, 0x41, 0xc5, 0x3f, 0x75, 0xbd,
  0x7e, 0x5f, 0xc9, 0xbd, 0x7b, 0x66, 0x8b, 0xbd, 0xe6, 0xc1, 0x74, 0xbd,
  0xab, 0xb3, 0x18, 0x41, 0x6c, 0x17, 0x18, 0xbd, 0x16, 0x01, 0xff, 0xbd,
  0x66, 0x8c, 0xa9, 0xbd, 0xcc, 0x57, 0x18, 0xbd, 0x7f, 0x02, 0x15, 0x41,
  0xd0, 0x6d, 0xad, 0x3c, 0x94, 0x5a, 0x44, 0x3d, 0x67, 0x94, 0x74, 0x3d,
  0x61, 0x01, 0x91, 0x3d, 0x1e, 0x09, 0x1f, 0x41, 0xbd, 0x86, 0xca, 0xbd,
  0x54, 0x6c, 0x0b, 0xbe, 0x0f, 0xd7, 0xdf, 0xbd, 0x66, 0xd7, 0x01, 0xbe,
  0x43, 0x2c, 0x16, 0x41, 0x56, 0x6e, 0x44, 0xc0, 0x75, 0xee, 0xab, 0xbf,
  0x15, 0x19, 0x17, 0xc0, 0xc3, 0x28, 0x4f, 0xc0, 0x91, 0x1a, 0x7c, 0xc2,
  0x49, 0x73, 0x36, 0xbe, 0x6f, 0xff, 0x09, 0xbe, 0x32, 0xe8, 0x23, 0xbe,
  0x3f, 0x1e, 0xf0, 0xbd, 0x8e, 0x04, 0x1e, 0x41, 0x40, 0xe9, 0x47, 0xc0,
  0xcc, 0xfd, 0xa7, 0xbf, 0xd3, 0x06, 0x1b, 0xc0, 0x2c, 0xe8, 0x5a, 0xc0,
  0x62, 0xcd, 0x7b, 0xc2, 0x43, 0x6e, 0x6d, 0xbd, 0x30, 0x6b, 0x5a, 0x3b,
  0x12, 0xa8, 0xf6, 0xbc, 0x5e, 0x2a, 0x5c, 0xbd, 0x48, 0xc9, 0x52, 0x41,
  0x20, 0x86, 0x9e, 0xbd, 0x0e, 0x01, 0xbd, 0xbd, 0x15, 0x67, 0xb2, 0xbd,
  0x27, 0xba, 0xe6, 0xbd, 0xf5, 0x6d, 0x13, 0x41, 0xe8, 0xe9, 0x8b, 0xbd,
  0x4a, 0xed, 0x4d, 0xbe, 0x62, 0x23, 0x01, 0xbe, 0x8d, 0x34, 0x92, 0xbd,
  0x40, 0x5b, 0x15, 0x41, 0x50, 0x45, 0xa9, 0xbd, 0x32, 0xa2, 0xf0, 0xbd,
  0x82, 0x3d, 0xb7, 0xbd, 0x9d, 0x57, 0xc2, 0xbd, 0x50, 0x89, 0x15, 0x41,
  0x96, 0xf5, 0xff, 0xff, 0x04, 0x00, 0x00, 0x00, 0x80, 0x00, 0x00, 0x00,
  0x09, 0x64, 0x3a, 0xc0, 0xd2, 0x55, 0x51, 0x40, 0x5f, 0xc1, 0x3d, 0xc0,
  0x57, 0x33, 0x9f, 0xc0, 0x9e, 0x7e, 0x0c, 0xc1, 0x9e, 0xe1, 0xb7, 0xc0,
  0x80, 0xa6, 0xa3, 0xc0, 0xab, 0xce, 0x37, 0xc0, 0x34, 0x13, 0x47, 0xc0,
  0x4f, 0xb0, 0xbd, 0xc0, 0xad, 0xb6, 0xa8, 0xc0, 0xad, 0x6b, 0x54, 0xc0,
  0xaa, 0xd8, 0xf7, 0xbf, 0x21, 0x0b, 0xe1, 0xc0, 0x64, 0x73, 0x56, 0xc0,
  0xb6, 0xbf, 0xf1, 0xbf, 0x21, 0x0f, 0xd7, 0xc0, 0x5e, 0x8a, 0x40, 0xc0,
  0x2a, 0x13, 0xfa, 0xbf, 0xf0, 0xd6, 0xf3, 0xbf, 0x38, 0xbf, 0x72, 0xc0,
  0x52, 0x5e, 0x03, 0xc0, 0xec, 0xce, 0x00, 0xc0, 0x0f, 0xad, 0x60, 0xc0,
  0x32, 0xad, 0xf2, 0xbf, 0x88, 0x55, 0x48, 0xc0, 0x17, 0x0b, 0x35, 0xc0,
  0x00, 0x8b, 0x47, 0xc0, 0x66, 0xb2, 0x24, 0xc1, 0xeb, 0x11, 0xf3, 0xbf,
  0xe8, 0x00, 0xf4, 0xbf, 0xe3, 0xc4, 0xf9, 0xbf, 0x22, 0xf6, 0xff, 0xff,
  0x04, 0x00, 0x00, 0x00, 0x40, 0x00, 0x00, 0x00, 0xa2, 0x4d, 0x5e, 0xc2,
  0xa7, 0xba, 0x5c, 0xc2, 0x61, 0x90, 0x5c, 0xc2, 0x97, 0xd2, 0x5d, 0xc2,
  0x05, 0x78, 0x5e, 0xc2, 0x39, 0x6a, 0x39, 0x42, 0x7a, 0x5c, 0x5e, 0xc2,
  0x52, 0x4b, 0x37, 0x42, 0x00, 0xfb, 0x3d, 0x42, 0x89, 0x14, 0x5e, 0xc2,
  0x47, 0x4d, 0x5d, 0xc2, 0xf0, 0x7d, 0x5e, 0xc2, 0x06, 0x0b, 0x42, 0x42,
  0x7b, 0x20, 0x40, 0x42, 0x27, 0xb4, 0x31, 0x42, 0x50, 0x64, 0x30, 0x42,
  0x6e, 0xf6, 0xff, 0xff, 0x04, 0x00, 0x00, 0x00, 0x04, 0x00, 0x00, 0x00,
  0xbc, 0x64, 0x50, 0x42, 0x7e, 0xf6, 0xff, 0xff, 0x04, 0x00, 0x00, 0x00,
  0x00, 0x08, 0x00, 0x00, 0x1b, 0x55, 0x2b, 0x42, 0x61, 0xe3, 0x01, 0xc1,
  0x8a, 0xba, 0x2a, 0x42, 0x9f, 0xee, 0x25, 0xc1, 0x6a, 0x39, 0xbe, 0xc1,
  0x12, 0xd5, 0x45, 0xc1, 0xd1, 0xf1, 0x31, 0xc1, 0x61, 0xe5, 0x2a, 0x42,
  0x0f, 0xb2, 0x29, 0x42, 0xae, 0x8d, 0x05, 0x42, 0x07, 0x4e, 0x38, 0xc1,
  0x68, 0x4b, 0x04, 0xc1, 0x41, 0x00, 0x13, 0xc1, 0x97, 0x14, 0x81, 0xc1,
  0x3d, 0x15, 0x02, 0xc1, 0xc0, 0x1f, 0x30, 0xc1, 0x75, 0xb0, 0x73, 0xc1,
  0x58, 0x88, 0x29, 0x42, 0xe2, 0x32, 0xeb, 0xc0, 0xf4, 0x04, 0xf0, 0xc0,
  0xcc, 0x73, 0x01, 0xc1, 0xe4, 0xb8, 0xe9, 0xc0, 0x03, 0xef, 0xe6, 0xc0,
  0xed, 0x63, 0x05, 0xc1, 0x6c, 0x54, 0x30, 0xc1, 0xe4, 0xd6, 0x27, 0x42,
  0x7c, 0x8a, 0xf2, 0xc0, 0xa4, 0x46, 0x28, 0x42, 0x5f, 0xd3, 0x0e, 0xc2,
  0xc9, 0xb8, 0x18, 0xc1, 0x96, 0x9f, 0xe7, 0xc0, 0xf1, 0x09, 0x06, 0xc1,
  0x75, 0xfa, 0x28, 0x42, 0x70, 0x5f, 0x03, 0xc1, 0x47, 0x51, 0x27, 0x42,
  0xc1, 0x4a, 0x2a, 0xc1, 0x6b, 0xdb, 0xb9, 0xc1, 0x2c, 0xc2, 0x38, 0xc1,
  0x76, 0x29, 0x2b, 0xc1, 0x83, 0xdf, 0x29, 0x42, 0x35, 0xdb, 0x27, 0x42,
  0xbe, 0xc2, 0x03, 0x42, 0x60, 0xc9, 0x2a, 0xc1, 0x8c, 0x22, 0xeb, 0xc0,
  0xe1, 0xf6, 0x16, 0xc1, 0x85, 0x08, 0x76, 0xc1, 0x96, 0x1e, 0x05, 0xc1,
  0xc7, 0xae, 0x29, 0xc1, 0x92, 0xd9, 0x6c, 0xc1, 0x50, 0x3f, 0x29, 0x42,
  0x8c, 0xef, 0xd8, 0xc0, 0x89, 0xa7, 0xfb, 0xc0, 0xd0, 0xec, 0x04, 0xc1,
  0xef, 0x3e, 0xd8, 0xc0, 0xa6, 0x49, 0xed, 0xc0, 0x42, 0x62, 0x04, 0xc1,
  0x73, 0xc5, 0x2a, 0xc1, 0x84, 0xda, 0x27, 0x42, 0x5c, 0xfe, 0xfd, 0xc0,
  0x0b, 0x5c, 0x26, 0x42, 0x63, 0x6e, 0x0d, 0xc2, 0x70, 0xe2, 0x12, 0xc1,
  0x1c, 0x0c, 0xea, 0xc0, 0xc2, 0xea, 0xfc, 0xc0, 0x3b, 0x4f, 0x29, 0x42,
  0x4a, 0xd5, 0x01, 0xc1, 0x7b, 0xf1, 0x26, 0x42, 0xfa, 0x05, 0x22, 0xc1,
  0xe1, 0xe7, 0xbc, 0xc1, 0x4f, 0xc6, 0x3a, 0xc1, 0x77, 0x26, 0x29, 0xc1,
  0x06, 0x2e, 0x29, 0x42, 0x09, 0x5d, 0x29, 0x42, 0xf6, 0x71, 0x02, 0x42,
  0xd2, 0x8f, 0x34, 0xc1, 0xce, 0x8b, 0xf3, 0xc0, 0x75, 0x15, 0x0f, 0xc1,
  0x6d, 0x1c, 0x80, 0xc1, 0xc4, 0xc0, 0x05, 0xc1, 0xac, 0x59, 0x27, 0xc1,
  0x6c, 0xd9, 0x6d, 0xc1, 0x63, 0xf0, 0x29, 0x42, 0x2d, 0xc1, 0xe8, 0xc0,
  0x3c, 0x10, 0xe4, 0xc0, 0xf3, 0x99, 0xfe, 0xc0, 0x1f, 0x06, 0xd1, 0xc0,
  0x95, 0x24, 0xdf, 0xc0, 0x63, 0xcb, 0xff, 0xc0, 0x40, 0x56, 0x21, 0xc1,
  0xf4, 0x3f, 0x27, 0x42, 0x90, 0x13, 0xec, 0xc0, 0x10, 0x14, 0x27, 0x42,
  0x9a, 0x42, 0x0e, 0xc2, 0x4f, 0x56, 0x12, 0xc1, 0xf3, 0x52, 0xee, 0xc0,
  0xee, 0x5d, 0xf8, 0xc0, 0xdd, 0xd4, 0x29, 0x42, 0x57, 0x06, 0xfc, 0xc0,
  0xcc, 0x5c, 0x2a, 0x42, 0xe3, 0x7d, 0x27, 0xc1, 0x0a, 0x36, 0xbc, 0xc1,
  0x35, 0x66, 0x3d, 0xc1, 0x98, 0x2b, 0x2f, 0xc1, 0xa0, 0x47, 0x2a, 0x42,
  0x5a, 0x3d, 0x28, 0x42, 0xa9, 0xa0, 0x04, 0x42, 0x77, 0x26, 0x36, 0xc1,
  0x31, 0x54, 0x00, 0xc1, 0xe3, 0x00, 0x1e, 0xc1, 0x50, 0x1d, 0x7b, 0xc1,
  0xd5, 0xde, 0x02, 0xc1, 0x48, 0x9c, 0x32, 0xc1, 0x3b, 0x61, 0x6c, 0xc1,
  0xd9, 0x36, 0x2b, 0x42, 0x21, 0x75, 0xe3, 0xc0, 0x10, 0x46, 0xec, 0xc0,
  0x94, 0x70, 0x01, 0xc1, 0xec, 0x41, 0xde, 0xc0, 0x63, 0x0e, 0xe4, 0xc0,
  0x5c, 0x87, 0xfd, 0xc0, 0x2f, 0xa8, 0x27, 0xc1, 0xe1, 0x60, 0x29, 0x42,
  0x68, 0x29, 0xee, 0xc0, 0x8d, 0x32, 0x28, 0x42, 0x62, 0x35, 0x0d, 0xc2,
  0x70, 0x3a, 0x13, 0xc1, 0xa8, 0xe9, 0xf4, 0xc0, 0xf5, 0xdd, 0xfb, 0xc0,
  0xcc, 0x97, 0x2a, 0x42, 0x62, 0x35, 0xf7, 0xc0, 0x03, 0xf6, 0x29, 0x42,
  0xe3, 0x58, 0x2d, 0xc1, 0x0c, 0x9c, 0xbc, 0xc1, 0x0f, 0xde, 0x46, 0xc1,
  0xfa, 0xa3, 0x2f, 0xc1, 0x54, 0x1e, 0x2b, 0x42, 0x92, 0x94, 0x28, 0x42,
  0xe7, 0x30, 0x05, 0x42, 0x5c, 0x43, 0x33, 0xc1, 0x54, 0x5d, 0xf6, 0xc0,
  0x5c, 0x1e, 0x17, 0xc1, 0xfc, 0x02, 0x7d, 0xc1, 0xf0, 0x43, 0x08, 0xc1,
  0x95, 0x40, 0x32, 0xc1, 0x4d, 0xc4, 0x71, 0xc1, 0x91, 0x5d, 0x2c, 0x42,
  0xb3, 0x9d, 0xde, 0xc0, 0x74, 0x14, 0xf2, 0xc0, 0xb0, 0xe2, 0x07, 0xc1,
  0xce, 0x9e, 0xe9, 0xc0, 0x0b, 0xbf, 0xe0, 0xc0, 0x08, 0x51, 0x03, 0xc1,
  0xf0, 0x01, 0x32, 0xc1, 0xd7, 0x1d, 0x29, 0x42, 0x25, 0x63, 0xf7, 0xc0,
  0xf6, 0x9f, 0x27, 0x42, 0x7b, 0x35, 0x0d, 0xc2, 0xa6, 0x5a, 0x18, 0xc1,
  0x1d, 0xd4, 0xfc, 0xc0, 0x44, 0x29, 0x06, 0xc1, 0x20, 0x09, 0x1f, 0xc2,
  0xaf, 0xfe, 0x09, 0xc2, 0x03, 0xf8, 0x1d, 0xc2, 0xd4, 0x5b, 0x38, 0x41,
  0x3b, 0x4c, 0xc8, 0x41, 0xa0, 0x1e, 0x58, 0x41, 0x20, 0xf5, 0x42, 0x41,
  0xdf, 0xf5, 0x20, 0xc2, 0x6e, 0xae, 0x1e, 0xc2, 0xa5, 0x4a, 0x12, 0xc2,
  0x93, 0xfd, 0x43, 0x41, 0xe6, 0x25, 0x13, 0x41, 0x1b, 0x0c, 0xeb, 0x40,
  0x6d, 0x5c, 0x86, 0x41, 0xba, 0x0a, 0x15, 0x41, 0xa1, 0x77, 0xef, 0x40,
  0xe1, 0xd2, 0x82, 0x41, 0x08, 0x78, 0x20, 0xc2, 0x2f, 0xcd, 0xf8, 0x40,
  0x68, 0xdc, 0x03, 0x41, 0xbc, 0x7a, 0x1a, 0x41, 0xb8, 0x51, 0xec, 0x40,
  0x22, 0xc1, 0xf5, 0x40, 0x65, 0x66, 0x17, 0x41, 0x2d, 0xbc, 0xfe, 0x40,
  0xaf, 0xd6, 0x1d, 0xc2, 0xee, 0xb0, 0x0c, 0x41, 0x78, 0x4a, 0x1b, 0xc2,
  0xef, 0x08, 0x15, 0x42, 0x75, 0x89, 0xf5, 0x40, 0xad, 0x67, 0xfd, 0x40,
  0x6d, 0xe9, 0xfd, 0x40, 0x1c, 0x69, 0x2c, 0x42, 0xec, 0xcb, 0xff, 0xc0,
  0x14, 0x89, 0x28, 0x42, 0x38, 0x7f, 0x2c, 0xc1, 0xcf, 0x66, 0xbc, 0xc1,
  0x17, 0x92, 0x3d, 0xc1, 0xe0, 0x7e, 0x2c, 0xc1, 0x42, 0xf8, 0x2a, 0x42,
  0xa0, 0xff, 0x29, 0x42, 0xff, 0xd3, 0x05, 0x42, 0xcb, 0x62, 0x2f, 0xc1,
  0x53, 0x01, 0x04, 0xc1, 0x53, 0xea, 0x1a, 0xc1, 0xfb, 0x2c, 0x7e, 0xc1,
  0xca, 0x40, 0x06, 0xc1, 0xff, 0x5e, 0x32, 0xc1, 0xd3, 0x00, 0x6a, 0xc1,
  0xa0, 0x6a, 0x2a, 0x42, 0x68, 0x26, 0xe0, 0xc0, 0x40, 0x9b, 0xf4, 0xc0,
  0xb3, 0x1f, 0x03, 0xc1, 0x74, 0x16, 0xe8, 0xc0, 0x8a, 0x3b, 0xe2, 0xc0,
  0x2b, 0xaa, 0x05, 0xc1, 0x44, 0xab, 0x31, 0xc1, 0x94, 0x21, 0x2a, 0x42,
  0x9f, 0x42, 0xff, 0xc0, 0x4f, 0xa1, 0x29, 0x42, 0x1b, 0x9c, 0x0f, 0xc2,
  0x2e, 0xd5, 0x1a, 0xc1, 0xd5, 0x3a, 0xf0, 0xc0, 0xe0, 0xdd, 0x01, 0xc1,
  0xb9, 0x92, 0x1f, 0xc2, 0xa7, 0x6b, 0x23, 0xc2, 0x6b, 0xb1, 0x1d, 0xc2,
  0xa4, 0x47, 0x3c, 0x41, 0x33, 0x39, 0xca, 0x41, 0xe5, 0xa1, 0x51, 0x41,
  0x96, 0x23, 0x3e, 0x41, 0x43, 0x7a, 0x1f, 0xc2, 0xee, 0xab, 0x1b, 0xc2,
  0x13, 0xa9, 0x10, 0xc2, 0xae, 0x40, 0x4c, 0x41, 0x39, 0x70, 0x0f, 0x41,
  0x40, 0x50, 0xfa, 0x40, 0x7e, 0xad, 0x87, 0x41, 0x84, 0x4c, 0x17, 0x41,
  0xdf, 0xa6, 0xf1, 0x40, 0x6b, 0x88, 0x83, 0x41, 0xd3, 0x99, 0x1d, 0xc2,
  0x5d, 0x88, 0xf5, 0x40, 0x15, 0x55, 0xf4, 0x40, 0x34, 0xef, 0x12, 0x41,
  0x1c, 0x5d, 0xf3, 0x40, 0x40, 0x48, 0x00, 0x41, 0x26, 0x66, 0x18, 0x41,
  0xdc, 0x49, 0x00, 0x41, 0xf8, 0x16, 0x1b, 0xc2, 0xcf, 0x52, 0x0d, 0x41,
  0x88, 0x34, 0x1b, 0xc2, 0xff, 0x75, 0x14, 0x42, 0xca, 0xd6, 0xf9, 0x40,
  0xc8, 0xde, 0xff, 0x40, 0x94, 0xb6, 0xf2, 0x40, 0x1b, 0x8b, 0x21, 0xc2,
  0x8d, 0xfa, 0xb8, 0xc1, 0x98, 0x10, 0x1f, 0xc2, 0xd0, 0x8b, 0x3f, 0x41,
  0x99, 0x86, 0xc5, 0x41, 0x1e, 0xe8, 0x59, 0x41, 0xcd, 0x33, 0x3e, 0x41,
  0xba, 0x46, 0x22, 0xc2, 0x5a, 0x61, 0x1f, 0xc2, 0x2f, 0x03, 0x12, 0xc2,
  0xbf, 0xc3, 0x45, 0x41, 0x05, 0x2f, 0x13, 0x41, 0x9f, 0x8b, 0xfe, 0x40,
  0x8c, 0x17, 0x8a, 0x41, 0xe6, 0xc5, 0x10, 0x41, 0x1c, 0x3d, 0x02, 0x41,
  0x66, 0xc5, 0x7c, 0x41, 0x48, 0x55, 0x21, 0xc2, 0x0f, 0x84, 0x01, 0x41,
  0x0e, 0x8a, 0xf9, 0x40, 0x44, 0x6b, 0x1b, 0x41, 0xd0, 0x7b, 0xf7, 0x40,
  0x3d, 0x2f, 0xf3, 0x40, 0xbd, 0x46, 0x15, 0x41, 0x49, 0xe0, 0xf6, 0x40,
  0x89, 0x7f, 0x1f, 0xc2, 0xe8, 0x94, 0x07, 0x41, 0xd8, 0x52, 0x1e, 0xc2,
  0xde, 0x05, 0x15, 0x42, 0x11, 0xdc, 0xff, 0x40, 0x23, 0xcc, 0xfa, 0x40,
  0x33, 0xc0, 0xf4, 0x40, 0xee, 0x7c, 0x2a, 0x42, 0x79, 0xc5, 0xfe, 0xc0,
  0x30, 0x54, 0x2a, 0x42, 0xc8, 0xcb, 0x25, 0xc1, 0xd8, 0x09, 0xba, 0xc1,
  0x5d, 0x87, 0x44, 0xc1, 0xfa, 0x51, 0x31, 0xc1, 0xdb, 0xc9, 0x2a, 0x42,
  0xdd, 0x5e, 0x2a, 0x42, 0x8c, 0x79, 0x05, 0x42, 0x5f, 0x8b, 0x35, 0xc1,
  0xfe, 0x25, 0x04, 0xc1, 0x6b, 0x9e, 0x16, 0xc1, 0xe8, 0x34, 0x79, 0xc1,
  0xa2, 0x86, 0x08, 0xc1, 0x13, 0xf5, 0x2e, 0xc1, 0xca, 0xf9, 0x69, 0xc1,
  0xce, 0x75, 0x2b, 0x42, 0xd6, 0x5e, 0xf0, 0xc0, 0xef, 0x80, 0xfa, 0xc0,
  0xca, 0x75, 0x09, 0xc1, 0xdc, 0x81, 0xd9, 0xc0, 0xfd, 0x92, 0xe2, 0xc0,
  0xd4, 0x24, 0x07, 0xc1, 0xd5, 0xa4, 0x2f, 0xc1, 0x59, 0xec, 0x28, 0x42,
  0xf4, 0x91, 0xf2, 0xc0, 0x6a, 0x2b, 0x29, 0x42, 0x5a, 0xc3, 0x0d, 0xc2,
  0x1f, 0x1c, 0x1b, 0xc1, 0xef, 0x5e, 0xf7, 0xc0, 0x93, 0xc8, 0xf5, 0xc0,
  0x43, 0x45, 0x2a, 0x42, 0xcd, 0x56, 0x02, 0xc1, 0xf6, 0x70, 0x28, 0x42,
  0xd3, 0xcd, 0x2a, 0xc1, 0xf0, 0xee, 0xba, 0xc1, 0x43, 0xf8, 0x44, 0xc1,
  0x3c, 0x85, 0x31, 0xc1, 0xf8, 0x9f, 0x2a, 0x42, 0xbc, 0xdd, 0x29, 0x42,
  0xfe, 0x10, 0x03, 0x42, 0x62, 0xf5, 0x31, 0xc1, 0x73, 0x37, 0x01, 0xc1,
  0xdc, 0x26, 0x11, 0xc1, 0x8a, 0xbf, 0x7e, 0xc1, 0xbc, 0x1a, 0x01, 0xc1,
  0x6d, 0xe9, 0x28, 0xc1, 0x69, 0x48, 0x6a, 0xc1, 0xbc, 0xef, 0x2a, 0x42,
  0x0d, 0x22, 0xe6, 0xc0, 0x8f, 0x64, 0xf5, 0xc0, 0x92, 0x12, 0x02, 0xc1,
  0x54, 0x08, 0xe1, 0xc0, 0xd6, 0xdd, 0xd9, 0xc0, 0xcc, 0x4a, 0x08, 0xc1,
  0x6e, 0x70, 0x26, 0xc1, 0xef, 0xc5, 0x29, 0x42, 0x4b, 0xb2, 0xfc, 0xc0,
  0xe9, 0xb7, 0x27, 0x42, 0x7a, 0x1f, 0x0f, 0xc2, 0x71, 0xd1, 0x17, 0xc1,
  0x0f, 0xcb, 0xe6, 0xc0, 0x81, 0xc0, 0xf4, 0xc0, 0x82, 0xd0, 0x2a, 0x42,
  0x6e, 0x2c, 0xfd, 0xc0, 0xe6, 0x18, 0x29, 0x42, 0x50, 0x31, 0x29, 0xc1,
  0x23, 0x7b, 0xbb, 0xc1, 0x9c, 0xc9, 0x3f, 0xc1, 0x71, 0x11, 0x33, 0xc1,
  0x98, 0xdd, 0x2b, 0x42, 0x21, 0xee, 0x2a, 0x42, 0x56, 0x44, 0x04, 0x42,
  0x00, 0x66, 0x3a, 0xc1, 0xff, 0x50, 0xfa, 0xc0, 0x95, 0xce, 0x1a, 0xc1,
  0xf2, 0x1c, 0x81, 0xc1, 0x4b, 0xd1, 0x05, 0xc1, 0x9c, 0x1f, 0x2d, 0xc1,
  0x42, 0xa4, 0x6e, 0xc1, 0x27, 0x08, 0x2c, 0x42, 0xb2, 0x05, 0xf3, 0xc0,
  0xb5, 0x34, 0xf2, 0xc0, 0xaa, 0xfc, 0x0a, 0xc1, 0xcb, 0x54, 0xe9, 0xc0,
  0x72, 0x7c, 0xe0, 0xc0, 0x79, 0xac, 0x09, 0xc1, 0x34, 0x41, 0x30, 0xc1,
  0x50, 0x48, 0x28, 0x42, 0xea, 0x1e, 0xfb, 0xc0, 0xab, 0x6f, 0x28, 0x42,
  0xaf, 0x06, 0x0f, 0xc2, 0x62, 0x76, 0x14, 0xc1, 0xff, 0x0c, 0xeb, 0xc0,
  0xfb, 0x03, 0xfd, 0xc0, 0x6a, 0x03, 0x25, 0xc2, 0x09, 0x70, 0x4b, 0xc1,
  0xb9, 0x5f, 0x23, 0xc2, 0xfb, 0x1c, 0x3d, 0x41, 0xb1, 0x4a, 0xc4, 0x41,
  0x8d, 0xf2, 0x4e, 0x41, 0x7a, 0x6e, 0x3b, 0x41, 0x79, 0x1c, 0x23, 0xc2,
  0x6f, 0xe4, 0x21, 0xc2, 0x86, 0x29, 0x17, 0xc2, 0xe8, 0xd9, 0x41, 0x41,
  0x00, 0x66, 0x09, 0x41, 0xb6, 0x83, 0xfb, 0x40, 0x83, 0x35, 0x89, 0x41,
  0xd3, 0x78, 0x17, 0x41, 0x14, 0xb8, 0xff, 0x40, 0x38, 0x25, 0x80, 0x41,
  0xed, 0x5a, 0x25, 0xc2, 0x3a, 0x84, 0xf3, 0x40, 0x76, 0x9b, 0x00, 0x41,
  0x3d, 0xf4, 0x15, 0x41, 0xfd, 0x20, 0xfe, 0x40, 0x78, 0x0a, 0x01, 0x41,
  0x4f, 0x79, 0x18, 0x41, 0x32, 0x28, 0xfe, 0x40, 0xca, 0x2c, 0x23, 0xc2,
  0xa8, 0xc5, 0x0d, 0x41, 0xa7, 0x72, 0x22, 0xc2, 0xb3, 0xc1, 0x13, 0x42,
  0x9c, 0xac, 0xf7, 0x40, 0x77, 0x72, 0xfd, 0x40, 0xec, 0x59, 0xfb, 0x40,
  0x07, 0x1c, 0x22, 0xc2, 0x3f, 0x5e, 0x8c, 0xc1, 0x18, 0x59, 0x22, 0xc2,
  0xa0, 0xc4, 0x34, 0x41, 0xdb, 0x39, 0xc9, 0x41, 0x27, 0xd0, 0x58, 0x41,
  0x11, 0x66, 0x43, 0x41, 0x7d, 0xe0, 0x22, 0xc2, 0xd0, 0xf9, 0x21, 0xc2,
  0x58, 0xec, 0x15, 0xc2, 0x07, 0xa4, 0x40, 0x41, 0x0a, 0xe6, 0x10, 0x41,
  0x58, 0x4f, 0xf5, 0x40, 0x3c, 0x22, 0x89, 0x41, 0xb1, 0x52, 0x11, 0x41,
  0xf4, 0x08, 0xf6, 0x40, 0xa3, 0x9c, 0x80, 0x41, 0x8f, 0x8d, 0x22, 0xc2,
  0x3e, 0x23, 0xf4, 0x40, 0x1b, 0x4a, 0xf9, 0x40, 0x11, 0xcf, 0x18, 0x41,
  0xbd, 0xb5, 0xf4, 0x40, 0x31, 0xbd, 0xfe, 0x40, 0x6d, 0x25, 0x16, 0x41,
  0x97, 0xed, 0xee, 0x40, 0xa6, 0xf0, 0x1f, 0xc2, 0xe1, 0xf0, 0x0b, 0x41,
  0xd4, 0x4e, 0x21, 0xc2, 0x19, 0x9c, 0x14, 0x42, 0xaf, 0xca, 0x00, 0x41,
  0xd7, 0x8f, 0xf0, 0x40, 0xf8, 0x95, 0xf5, 0x40, 0x79, 0x16, 0x1c, 0xc2,
  0x75, 0x1c, 0x5a, 0xc2, 0x42, 0x99, 0x1a, 0xc2, 0xcd, 0xdf, 0x3c, 0x41,
  0x5a, 0xa4, 0xc7, 0x41, 0x2f, 0xf6, 0x52, 0x41, 0xa5, 0xa9, 0x3e, 0x41,
  0x43, 0x59, 0x1c, 0xc2, 0xfd, 0x40, 0x18, 0xc2, 0x61, 0x86, 0x0c, 0xc2,
  0x65, 0x55, 0x4a, 0x41, 0x22, 0x59, 0x12, 0x41, 0xef, 0x06, 0xf9, 0x40,
  0x82, 0x3a, 0x89, 0x41, 0x13, 0xcb, 0x10, 0x41, 0xd8, 0xe9, 0x01, 0x41,
  0x61, 0xda, 0x81, 0x41, 0x5d, 0x8c, 0x1a, 0xc2, 0x22, 0x53, 0xfc, 0x40,
  0x43, 0xce, 0xf6, 0x40, 0x3a, 0xc7, 0x19, 0x41, 0x9c, 0x51, 0xfa, 0x40,
  0x09, 0xbd, 0x02, 0x41, 0xc0, 0x0b, 0x15, 0x41, 0xd1, 0x5f, 0xf2, 0x40,
  0x2b, 0x18, 0x19, 0xc2, 0xe6, 0xe9, 0x10, 0x41, 0x59, 0xf1, 0x16, 0xc2,
  0x15, 0x7d, 0x14, 0x42, 0x65, 0x6e, 0x01, 0x41, 0x2f, 0x01, 0xfd, 0x40,
  0xe5, 0x96, 0x01, 0x41, 0xfb, 0x57, 0x1b, 0xc2, 0xda, 0x51, 0x60, 0xc2,
  0x7c, 0xb8, 0x18, 0xc2, 0xbb, 0x1d, 0x3e, 0x41, 0xea, 0xf3, 0xc9, 0x41,
  0x9a, 0x1e, 0x53, 0x41, 0x24, 0x13, 0x40, 0x41, 0x91, 0x7f, 0x1a, 0xc2,
  0xf6, 0x6f, 0x17, 0xc2, 0xcc, 0x01, 0x0d, 0xc2, 0x7b, 0x06, 0x44, 0x41,
  0xbb, 0x6c, 0x0f, 0x41, 0xa5, 0x6f, 0xf0, 0x40, 0x45, 0xb6, 0x89, 0x41,
  0x73, 0x83, 0x18, 0x41, 0x31, 0x41, 0xfe, 0x40, 0x01, 0x40, 0x81, 0x41,
  0x8d, 0x94, 0x19, 0xc2, 0x1b, 0x67, 0xfd, 0x40, 0xd8, 0x52, 0x02, 0x41,
  0xa9, 0x83, 0x15, 0x41, 0x00, 0xfe, 0xf8, 0x40, 0x40, 0xdf, 0xfe, 0x40,
  0x2c, 0x85, 0x13, 0x41, 0x1d, 0x14, 0xef, 0x40, 0x08, 0x62, 0x17, 0xc2,
  0xd1, 0xb3, 0x0e, 0x41, 0x08, 0x61, 0x17, 0xc2, 0x61, 0x47, 0x16, 0x42,
  0x01, 0x63, 0xff, 0x40, 0x2c, 0xb0, 0xfd, 0x40, 0xdc, 0xde, 0xfd, 0x40,
  0x8a, 0xfe, 0xff, 0xff, 0x04, 0x00, 0x00, 0x00, 0x40, 0x00, 0x00, 0x00,
  0x64, 0xd2, 0x47, 0xc1, 0xc2, 0x46, 0x4a, 0xc1, 0x97, 0xf8, 0x43, 0xc1,
  0x60, 0xc6, 0x48, 0xc1, 0xd6, 0x7c, 0x42, 0xc1, 0x43, 0x59, 0x82, 0x41,
  0x36, 0x40, 0x48, 0xc1, 0x61, 0xb2, 0x81, 0x41, 0xc6, 0x9c, 0x81, 0x41,
  0x47, 0x10, 0x3f, 0xc1, 0x31, 0xa7, 0x4d, 0xc1, 0x35, 0x0d, 0x49, 0xc1,
  0xa5, 0xea, 0x83, 0x41, 0x31, 0x1b, 0x83, 0x41, 0x71, 0x4f, 0x80, 0x41,
  0x5f, 0xdc, 0x82, 0x41, 0x2c, 0xfa, 0xff, 0xff, 0x30, 0xfa, 0xff, 0xff,
  0x0f, 0x00, 0x00, 0x00, 0x4d, 0x4c, 0x49, 0x52, 0x20, 0x43, 0x6f, 0x6e,
  0x76, 0x65, 0x72, 0x74, 0x65, 0x64, 0x2e, 0x00, 0x01, 0x00, 0x00, 0x00,
  0x14, 0x00, 0x00, 0x00, 0x00, 0x00, 0x0e, 0x00, 0x18, 0x00, 0x14, 0x00,
  0x10, 0x00, 0x0c, 0x00, 0x08, 0x00, 0x04, 0x00, 0x0e, 0x00, 0x00, 0x00,
  0x14, 0x00, 0x00, 0x00, 0x1c, 0x00, 0x00, 0x00, 0x48, 0x01, 0x00, 0x00,
  0x4c, 0x01, 0x00, 0x00, 0x50, 0x01, 0x00, 0x00, 0x04, 0x00, 0x00, 0x00,
  0x6d, 0x61, 0x69, 0x6e, 0x00, 0x00, 0x00, 0x00, 0x05, 0x00, 0x00, 0x00,
  0xfc, 0x00, 0x00, 0x00, 0xb0, 0x00, 0x00, 0x00, 0x6c, 0x00, 0x00, 0x00,
  0x38, 0x00, 0x00, 0x00, 0x04, 0x00, 0x00, 0x00, 0x26, 0xff, 0xff, 0xff,
  0x10, 0x00, 0x00, 0x00, 0x00, 0x00, 0x00, 0x08, 0x0c, 0x00, 0x00, 0x00,
  0x10, 0x00, 0x00, 0x00, 0xb0, 0xfa, 0xff, 0xff, 0x01, 0x00, 0x00, 0x00,
  0x0b, 0x00, 0x00, 0x00, 0x03, 0x00, 0x00, 0x00, 0x0a, 0x00, 0x00, 0x00,
  0x01, 0x00, 0x00, 0x00, 0x03, 0x00, 0x00, 0x00, 0x9e, 0xff, 0xff, 0xff,
  0x14, 0x00, 0x00, 0x00, 0x00, 0x00, 0x00, 0x4b, 0x14, 0x00, 0x00, 0x00,
  0x18, 0x00, 0x00, 0x00, 0x01, 0x00, 0x00, 0x00, 0x8e, 0xff, 0xff, 0xff,
  0x0a, 0xd7, 0x23, 0x3c, 0x01, 0x00, 0x00, 0x00, 0x0a, 0x00, 0x00, 0x00,
  0x01, 0x00, 0x00, 0x00, 0x09, 0x00, 0x00, 0x00, 0x86, 0xff, 0xff, 0xff,
  0x10, 0x00, 0x00, 0x00, 0x00, 0x00, 0x00, 0x08, 0x0c, 0x00, 0x00, 0x00,
  0x10, 0x00, 0x00, 0x00, 0x10, 0xfb, 0xff, 0xff, 0x01, 0x00, 0x00, 0x00,
  0x09, 0x00, 0x00, 0x00, 0x03, 0x00, 0x00, 0x00, 0x08, 0x00, 0x00, 0x00,
  0x02, 0x00, 0x00, 0x00, 0x04, 0x00, 0x00, 0x00, 0x00, 0x00, 0x0e, 0x00,
  0x1a, 0x00, 0x14, 0x00, 0x10, 0x00, 0x0c, 0x00, 0x0b, 0x00, 0x04, 0x00,
  0x0e, 0x00, 0x00, 0x00, 0x1c, 0x00, 0x00, 0x00, 0x00, 0x00, 0x00, 0x4b,
  0x1c, 0x00, 0x00, 0x00, 0x20, 0x00, 0x00, 0x00, 0x01, 0x00, 0x00, 0x00,
  0x00, 0x00, 0x06, 0x00, 0x08, 0x00, 0x04, 0x00, 0x06, 0x00, 0x00, 0x00,
  0x0a, 0xd7, 0x23, 0x3c, 0x01, 0x00, 0x00, 0x00, 0x08, 0x00, 0x00, 0x00,
  0x01, 0x00, 0x00, 0x00, 0x07, 0x00, 0x00, 0x00, 0x00, 0x00, 0x0e, 0x00,
  0x14, 0x00, 0x00, 0x00, 0x10, 0x00, 0x0c, 0x00, 0x0b, 0x00, 0x04, 0x00,
  0x0e, 0x00, 0x00, 0x00, 0x10, 0x00, 0x00, 0x00, 0x00, 0x00, 0x00, 0x08,
  0x0c, 0x00, 0x00, 0x00, 0x10, 0x00, 0x00, 0x00, 0x98, 0xfb, 0xff, 0xff,
  0x01, 0x00, 0x00, 0x00, 0x07, 0x00, 0x00, 0x00, 0x03, 0x00, 0x00, 0x00,
  0x00, 0x00, 0x00, 0x00, 0x06, 0x00, 0x00, 0x00, 0x05, 0x00, 0x00, 0x00,
  0x01, 0x00, 0x00, 0x00, 0x0b, 0x00, 0x00, 0x00, 0x01, 0x00, 0x00, 0x00,
  0x00, 0x00, 0x00, 0x00, 0x0c, 0x00, 0x00, 0x00, 0x10, 0x04, 0x00, 0x00,
  0xb8, 0x03, 0x00, 0x00, 0x60, 0x03, 0x00, 0x00, 0x24, 0x03, 0x00, 0x00,
  0xe8, 0x02, 0x00, 0x00, 0x8c, 0x02, 0x00, 0x00, 0x3c, 0x02, 0x00, 0x00,
  0xb8, 0x01, 0x00, 0x00, 0x50, 0x01, 0x00, 0x00, 0xcc, 0x00, 0x00, 0x00,
  0x60, 0x00, 0x00, 0x00, 0x04, 0x00, 0x00, 0x00, 0x36, 0xfc, 0xff, 0xff,
  0x00, 0x00, 0x00, 0x01, 0x14, 0x00, 0x00, 0x00, 0x1c, 0x00, 0x00, 0x00,
  0x1c, 0x00, 0x00, 0x00, 0x0c, 0x00, 0x00, 0x00, 0x34, 0x00, 0x00, 0x00,
  0x02, 0x00, 0x00, 0x00, 0xff, 0xff, 0xff, 0xff, 0x01, 0x00, 0x00, 0x00,
  0x20, 0xfc, 0xff, 0xff, 0x1b, 0x00, 0x00, 0x00, 0x53, 0x74, 0x61, 0x74,
  0x65, 0x66, 0x75, 0x6c, 0x50, 0x61, 0x72, 0x74, 0x69, 0x74, 0x69, 0x6f,
  0x6e, 0x65, 0x64, 0x43, 0x61, 0x6c, 0x6c, 0x5f, 0x31, 0x3a, 0x30, 0x00,
  0x02, 0x00, 0x00, 0x00, 0x01, 0x00, 0x00, 0x00, 0x01, 0x00, 0x00, 0x00,
  0x8e, 0xfc, 0xff, 0xff, 0x00, 0x00, 0x00, 0x01, 0x14, 0x00, 0x00, 0x00,
  0x1c, 0x00, 0x00, 0x00, 0x1c, 0x00, 0x00, 0x00, 0x0b, 0x00, 0x00, 0x00,
  0x44, 0x00, 0x00, 0x00, 0x02, 0x00, 0x00, 0x00, 0xff, 0xff, 0xff, 0xff,
  0x10, 0x00, 0x00, 0x00, 0x78, 0xfc, 0xff, 0xff, 0x28, 0x00, 0x00, 0x00,
  0x73, 0x65, 0x71, 0x75, 0x65, 0x6e, 0x74, 0x69, 0x61, 0x6c, 0x5f, 0x31,
  0x5f, 0x31, 0x2f, 0x6c, 0x65, 0x61, 0x6b, 0x79, 0x5f, 0x72, 0x65, 0x5f,
  0x6c, 0x75, 0x5f, 0x31, 0x5f, 0x32, 0x2f, 0x4c, 0x65, 0x61, 0x6b, 0x79,
  0x52, 0x65, 0x6c, 0x75, 0x00, 0x00, 0x00, 0x00, 0x02, 0x00, 0x00, 0x00,
  0x01, 0x00, 0x00, 0x00, 0x10, 0x00, 0x00, 0x00, 0xf6, 0xfc, 0xff, 0xff,
  0x00, 0x00, 0x00, 0x01, 0x14, 0x00, 0x00, 0x00, 0x1c, 0x00, 0x00, 0x00,
  0x1c, 0x00, 0x00, 0x00, 0x0a, 0x00, 0x00, 0x00, 0x5c, 0x00, 0x00, 0x00,
  0x02, 0x00, 0x00, 0x00, 0xff, 0xff, 0xff, 0xff, 0x10, 0x00, 0x00, 0x00,
  0xe0, 0xfc, 0xff, 0xff, 0x40, 0x00, 0x00, 0x00, 0x73, 0x65, 0x71, 0x75,
  0x65, 0x6e, 0x74, 0x69, 0x61, 0x6c, 0x5f, 0x31, 0x5f, 0x31, 0x2f, 0x64,
  0x65, 0x6e, 0x73, 0x65, 0x5f, 0x35, 0x5f, 0x31, 0x2f, 0x4d, 0x61, 0x74,
  0x4d, 0x75, 0x6c, 0x3b, 0x73, 0x65, 0x71, 0x75, 0x65, 0x6e, 0x74, 0x69,
  0x61, 0x6c, 0x5f, 0x31, 0x5f, 0x31, 0x2f, 0x64, 0x65, 0x6e, 0x73, 0x65,
  0x5f, 0x35, 0x5f, 0x31, 0x2f, 0x42, 0x69, 0x61, 0x73, 0x41, 0x64, 0x64,
  0x00, 0x00, 0x00, 0x00, 0x02, 0x00, 0x00, 0x00, 0x01, 0x00, 0x00, 0x00,
  0x10, 0x00, 0x00, 0x00, 0x76, 0xfd, 0xff, 0xff, 0x00, 0x00, 0x00, 0x01,
  0x14, 0x00, 0x00, 0x00, 0x1c, 0x00, 0x00, 0x00, 0x1c, 0x00, 0x00, 0x00,
  0x09, 0x00, 0x00, 0x00, 0x40, 0x00, 0x00, 0x00, 0x02, 0x00, 0x00, 0x00,
  0xff, 0xff, 0xff, 0xff, 0x20, 0x00, 0x00, 0x00, 0x60, 0xfd, 0xff, 0xff,
  0x26, 0x00, 0x00, 0x00, 0x73, 0x65, 0x71, 0x75, 0x65, 0x6e, 0x74, 0x69,
  0x61, 0x6c, 0x5f, 0x31, 0x5f, 0x31, 0x2f, 0x6c, 0x65, 0x61, 0x6b, 0x79,
  0x5f, 0x72, 0x65, 0x5f, 0x6c, 0x75, 0x5f, 0x31, 0x2f, 0x4c, 0x65, 0x61,
  0x6b, 0x79, 0x52, 0x65, 0x6c, 0x75, 0x00, 0x00, 0x02, 0x00, 0x00, 0x00,
  0x01, 0x00, 0x00, 0x00, 0x20, 0x00, 0x00, 0x00, 0xda, 0xfd, 0xff, 0xff,
  0x00, 0x00, 0x00, 0x01, 0x14, 0x00, 0x00, 0x00, 0x1c, 0x00, 0x00, 0x00,
  0x1c, 0x00, 0x00, 0x00, 0x08, 0x00, 0x00, 0x00, 0x5c, 0x00, 0x00, 0x00,
  0x02, 0x00, 0x00, 0x00, 0xff, 0xff, 0xff, 0xff, 0x20, 0x00, 0x00, 0x00,
  0xc4, 0xfd, 0xff, 0xff, 0x40, 0x00, 0x00, 0x00, 0x73, 0x65, 0x71, 0x75,
  0x65, 0x6e, 0x74, 0x69, 0x61, 0x6c, 0x5f, 0x31, 0x5f, 0x31, 0x2f, 0x64,
  0x65, 0x6e, 0x73, 0x65, 0x5f, 0x34, 0x5f, 0x31, 0x2f, 0x4d, 0x61, 0x74,
  0x4d, 0x75, 0x6c, 0x3b, 0x73, 0x65, 0x71, 0x75, 0x65, 0x6e, 0x74, 0x69,
  0x61, 0x6c, 0x5f, 0x31, 0x5f, 0x31, 0x2f, 0x64, 0x65, 0x6e, 0x73, 0x65,
  0x5f, 0x34, 0x5f, 0x31, 0x2f, 0x42, 0x69, 0x61, 0x73, 0x41, 0x64, 0x64,
  0x00, 0x00, 0x00, 0x00, 0x02, 0x00, 0x00, 0x00, 0x01, 0x00, 0x00, 0x00,
  0x20, 0x00, 0x00, 0x00, 0xae, 0xfe, 0xff, 0xff, 0x00, 0x00, 0x00, 0x01,
  0x10, 0x00, 0x00, 0x00, 0x10, 0x00, 0x00, 0x00, 0x07, 0x00, 0x00, 0x00,
  0x2c, 0x00, 0x00, 0x00, 0x34, 0xfe, 0xff, 0xff, 0x1f, 0x00, 0x00, 0x00,
  0x73, 0x65, 0x71, 0x75, 0x65, 0x6e, 0x74, 0x69, 0x61, 0x6c, 0x5f, 0x31,
  0x5f, 0x31, 0x2f, 0x64, 0x65, 0x6e, 0x73, 0x65, 0x5f, 0x34, 0x5f, 0x31,
  0x2f, 0x4d, 0x61, 0x74, 0x4d, 0x75, 0x6c, 0x00, 0x02, 0x00, 0x00, 0x00,
  0x20, 0x00, 0x00, 0x00, 0x05, 0x00, 0x00, 0x00, 0xfa, 0xfe, 0xff, 0xff,
  0x00, 0x00, 0x00, 0x01, 0x10, 0x00, 0x00, 0x00, 0x10, 0x00, 0x00, 0x00,
  0x06, 0x00, 0x00, 0x00, 0x3c, 0x00, 0x00, 0x00, 0x80, 0xfe, 0xff, 0xff,
  0x2f, 0x00, 0x00, 0x00, 0x73, 0x65, 0x71, 0x75, 0x65, 0x6e, 0x74, 0x69,
  0x61, 0x6c, 0x5f, 0x31, 0x5f, 0x31, 0x2f, 0x64, 0x65, 0x6e, 0x73, 0x65,
  0x5f, 0x34, 0x5f, 0x31, 0x2f, 0x42, 0x69, 0x61, 0x73, 0x41, 0x64, 0x64,
  0x2f, 0x52, 0x65, 0x61, 0x64, 0x56, 0x61, 0x72, 0x69, 0x61, 0x62, 0x6c,
  0x65, 0x4f, 0x70, 0x00, 0x01, 0x00, 0x00, 0x00, 0x20, 0x00, 0x00, 0x00,
  0x52, 0xff, 0xff, 0xff, 0x00, 0x00, 0x00, 0x01, 0x10, 0x00, 0x00, 0x00,
  0x10, 0x00, 0x00, 0x00, 0x05, 0x00, 0x00, 0x00, 0x1c, 0x00, 0x00, 0x00,
  0xd8, 0xfe, 0xff, 0xff, 0x0f, 0x00, 0x00, 0x00, 0x61, 0x72, 0x69, 0x74,
  0x68, 0x2e, 0x63, 0x6f, 0x6e, 0x73, 0x74, 0x61, 0x6e, 0x74, 0x33, 0x00,
  0x01, 0x00, 0x00, 0x00, 0x10, 0x00, 0x00, 0x00, 0x8a, 0xff, 0xff, 0xff,
  0x00, 0x00, 0x00, 0x01, 0x10, 0x00, 0x00, 0x00, 0x10, 0x00, 0x00, 0x00,
  0x04, 0x00, 0x00, 0x00, 0x1c, 0x00, 0x00, 0x00, 0x10, 0xff, 0xff, 0xff,
  0x0f, 0x00, 0x00, 0x00, 0x61, 0x72, 0x69, 0x74, 0x68, 0x2e, 0x63, 0x6f,
  0x6e, 0x73, 0x74, 0x61, 0x6e, 0x74, 0x32, 0x00, 0x01, 0x00, 0x00, 0x00,
  0x01, 0x00, 0x00, 0x00, 0xc2, 0xff, 0xff, 0xff, 0x00, 0x00, 0x00, 0x01,
  0x10, 0x00, 0x00, 0x00, 0x10, 0x00, 0x00, 0x00, 0x03, 0x00, 0x00, 0x00,
  0x1c, 0x00, 0x00, 0x00, 0x48, 0xff, 0xff, 0xff, 0x0f, 0x00, 0x00, 0x00,
  0x61, 0x72, 0x69, 0x74, 0x68, 0x2e, 0x63, 0x6f, 0x6e, 0x73, 0x74, 0x61,
  0x6e, 0x74, 0x31, 0x00, 0x02, 0x00, 0x00, 0x00, 0x10, 0x00, 0x00, 0x00,
  0x20, 0x00, 0x00, 0x00, 0x00, 0x00, 0x16, 0x00, 0x18, 0x00, 0x14, 0x00,
  0x00, 0x00, 0x10, 0x00, 0x0c, 0x00, 0x08, 0x00, 0x00, 0x00, 0x00, 0x00,
  0x00, 0x00, 0x07, 0x00, 0x16, 0x00, 0x00, 0x00, 0x00, 0x00, 0x00, 0x01,
  0x10, 0x00, 0x00, 0x00, 0x10, 0x00, 0x00, 0x00, 0x02, 0x00, 0x00, 0x00,
  0x1c, 0x00, 0x00, 0x00, 0x9c, 0xff, 0xff, 0xff, 0x0e, 0x00, 0x00, 0x00,
  0x61, 0x72, 0x69, 0x74, 0x68, 0x2e, 0x63, 0x6f, 0x6e, 0x73, 0x74, 0x61,
  0x6e, 0x74, 0x00, 0x00, 0x02, 0x00, 0x00, 0x00, 0x01, 0x00, 0x00, 0x00,
  0x10, 0x00, 0x00, 0x00, 0x00, 0x00, 0x16, 0x00, 0x1c, 0x00, 0x18, 0x00,
  0x00, 0x00, 0x14, 0x00, 0x10, 0x00, 0x0c, 0x00, 0x00, 0x00, 0x00, 0x00,
  0x08, 0x00, 0x07, 0x00, 0x16, 0x00, 0x00, 0x00, 0x00, 0x00, 0x00, 0x01,
  0x14, 0x00, 0x00, 0x00, 0x20, 0x00, 0x00, 0x00, 0x20, 0x00, 0x00, 0x00,
  0x01, 0x00, 0x00, 0x00, 0x3c, 0x00, 0x00, 0x00, 0x02, 0x00, 0x00, 0x00,
  0xff, 0xff, 0xff, 0xff, 0x05, 0x00, 0x00, 0x00, 0x04, 0x00, 0x04, 0x00,
  0x04, 0x00, 0x00, 0x00, 0x1f, 0x00, 0x00, 0x00, 0x73, 0x65, 0x72, 0x76,
  0x69, 0x6e, 0x67, 0x5f, 0x64, 0x65, 0x66, 0x61, 0x75, 0x6c, 0x74, 0x5f,
  0x69, 0x6e, 0x70, 0x75, 0x74, 0x5f, 0x6c, 0x61, 0x79, 0x65, 0x72, 0x5f,
  0x32, 0x3a, 0x30, 0x00, 0x02, 0x00, 0x00, 0x00, 0x01, 0x00, 0x00, 0x00,
  0x05, 0x00, 0x00, 0x00, 0x02, 0x00, 0x00, 0x00, 0x20, 0x00, 0x00, 0x00,
  0x04, 0x00, 0x00, 0x00, 0xf4, 0xff, 0xff, 0xff, 0x62, 0x00, 0x00, 0x00,
  0x00, 0x00, 0x00, 0x62, 0x0c, 0x00, 0x0c, 0x00, 0x0b, 0x00, 0x00, 0x00,
  0x00, 0x00, 0x04, 0x00, 0x0c, 0x00, 0x00, 0x00, 0x09, 0x00, 0x00, 0x00,
  0x00, 0x00, 0x00, 0x09
};
const unsigned int model_len = 5116;
